/**
  ******************************************************************************
  * @file    network_data.c
  * @author  AST Embedded Analytics Research Platform
  * @date    2025-03-05T14:42:09+0100
  * @brief   AI Tool Automatic Code Generator for Embedded NN computing
  ******************************************************************************
  * Copyright (c) 2025 STMicroelectronics.
  * All rights reserved.
  *
  * This software is licensed under terms that can be found in the LICENSE file
  * in the root directory of this software component.
  * If no LICENSE file comes with this software, it is provided AS-IS.
  ******************************************************************************
  */

#include "network_data.h"
STAI_ALIGNED(8)
const uint64_t g_network_weights_array[394] = {
  0x48fe1dcd21fed731U, 0xbf3111d0100e700U, 0x34020eee04e60007U, 0x162414e31dd045daU,
  0xee070b130508f0fdU, 0xff1bca0254f839f4U, 0xd0b091cdcf1055fU, 0xd01e30f208dfe203U,
  0x5ef1ae713cef719U, 0x3eea24dcd9dde622U, 0x11ec2a0501fccbedU, 0x3f01c22f6e709ffU,
  0x10cefb251af102f2U, 0x1a2f0ddffefe15daU, 0x6f60dfceadb1dddU, 0x8ea07090bef01caU,
  0x340912edf6f01b1aU, 0x90b1cde21d50ff3U, 0x35e134dd56fa1cfcU, 0xaf32521e6fd0f78U,
  0xf40d1708e8e005f7U, 0xb2fce92a2c12d9fcU, 0x40f722fdf5ee04fcU, 0xe10513754afa1af8U,
  0x2c0cf9efe9ec0e74U, 0xe6847fb14cd32dfU, 0xfe0bf10826f402U, 0xec070d11f6eafa0bU,
  0xf545d8e31be218cfU, 0x22f9e0f3f20910e6U, 0xc3900ffaaef21d4U, 0xd5e8f1fffffffff9U,
  0x423c30448f523f1U, 0x14f6f417e8f90e73U, 0x37fe9e02dd94cf5U, 0xd0304eaefcaeae4U,
  0xfac41ff4ece0e91aU, 0xfaf3eceaff00b1efU, 0x11132dee12e91500U, 0xbdff0fec282dee10U,
  0xcbdf14f61005fb1dU, 0xfdfbd4d304d538dbU, 0x1cf20c03fbf2ef12U, 0xbe21e2122008edd1U,
  0x1a14f216db0df9f0U, 0xee201be5340010cfU, 0xf318e7f909f40a30U, 0x7f60516e1361cfeU,
  0x3de3ff06fa2e1b0cU, 0x12fe09f305ff0201U, 0x18f529da0210e6ecU, 0xf01206fd2a0c2716U,
  0xa7f2e8f5f208fcefU, 0xffff01feb5ee00ffU, 0x2d20e6ec39e029ebU, 0x122125fe08f32309U,
  0x2f121f4c4ecf808U, 0x20cd0d171621210cU, 0x10151afe070206f6U, 0xf7ebe94e3b16ebddU,
  0x17fc00cefc0416fcU, 0xe6aee1618dd57fdU, 0x16f2f81ce5f2e5fdU, 0x16db18dfe4dbfd10U,
  0x8f213c4f402beffU, 0x6dffc2b01e30a0bU, 0x1c0bfa101f192234U, 0x170ef9ec1013f60eU,
  0x281d1d2837fc0ff6U, 0x1f00fb0fe8ed0b74U, 0xe43de2e9ddf52217U, 0xca1630d9e4f5eeU,
  0x1a9fffffe21U, 0x49ffffff1aU, 0xfffffec9ffffffccU, 0x2dffffff1fU,
  0x1f1fffffe32U, 0xfffffeb6fffffe3aU, 0xfffffefcffffff77U, 0x3f000001b8U,
  0x175ffffff9aU, 0xfffffcbbfffffe2aU, 0xffffff92ffffffefU, 0x169000000a5U,
  0xffffffcbfffffe2dU, 0xfffffff8fffffc7dU, 0xffffff15ffffff45U, 0xfffffe9fffffff9bU,
  0xe1fffffe35U, 0xfffffeef000002ccU, 0x1eefffffd39U, 0xffffffa50000002aU,
  0xfffffe1e00000159U, 0x1adfffffd53U, 0xfffffdc300000096U, 0xfffffcf7fffffd9fU,
  0xfffffded000001a2U, 0x75fffffe95U, 0x24fffffd65U, 0xfffffe7cffffffacU,
  0x5bfffffe64U, 0xfffffe4ffffffe46U, 0xffffffa0fffffc80U, 0xfffffe90fffffd14U,
  0x452b5b0bf42608e5U, 0x60654081efad105U, 0xafb450103130dbeU, 0x9e442f30c110822U,
  0x9f44d4bcef60bc6U, 0x5f534b3917d9d3bdU, 0x213bffe9f58103f4U, 0x5647460003dcd0f8U,
  0x4613efc0502fac2U, 0x360762703f2fef6U, 0xe30ffd4716ec0108U, 0x1209e6e7a8961d0cU,
  0xf1f4f84a230e12f8U, 0xfc3cef0bfdd921b4U, 0xf2e7330f190900c3U, 0xfe40cdfdc1cd34U,
  0x17d400c9e7590716U, 0x8490314f8cd00U, 0xdefef3cf03edfc04U, 0xfe10d40e1e0934ffU,
  0xe73e055105e6f6cbU, 0x717443706dedbccU, 0x1cac02cbdf54fe02U, 0xd940290035d1d201U,
  0x306eec70100210aU, 0x7eae0cd000e074cU, 0x7d70003040ffbfdU, 0xd5b52f070711d70fU,
  0xc3e19fd08dee2faU, 0x64d2cf105ccfbceU, 0x2e1de8ccd7e1241eU, 0xfff2474effc6c9d4U,
  0x1410780ae60a06b1U, 0x15cb35e70d09e5fdU, 0xf6c447f1051102c8U, 0x61501030715d612U,
  0xc0e14c27db1907e4U, 0x741d2a2bf2d3e7dcU, 0x4b9dbefea9a03e9U, 0x11f25d1dbe6db08U,
  0xe55a00e60201d6c2U, 0xe7fffff800bbb6d7U, 0x1218c12417cf01e6U, 0xbfb9e713bead1416U,
  0x6edda27170d15f2U, 0xd83617d902da19c2U, 0xcacb0fe11a1de6caU, 0xe0dd2bec07ccd831U,
  0x1a167dcfef27fb21U, 0xffa3b002400ce08U, 0x30c5cd03bd6fc26U, 0xfe1e031418072218U,
  0xdd236e372fe3f8c9U, 0x6a09453602eaccd2U, 0x79efcedf6720019U, 0x2424eff1adfd2f6U,
  0xfe60fad1fcfd0a22U, 0x2faf6f70b02fe49U, 0x34d90422130af1f3U, 0xc4b61c02362aef29U,
  0x17261d3d1ce4defcU, 0xfc4e4fcfedd1f9dfU, 0x2612f9c9c1c90f1dU, 0xf8cb444ff6f2e1d5U,
  0xf22209d4e549111cU, 0x13f8d8040f00d102U, 0xe1604b80af50e08U, 0xc0b021515f142f0U,
  0xcffa03cb05d7feb9U, 0x10dad7cd16f5cabeU, 0xf68202f3ea4f02feU, 0x4d6d6023abbcd03U,
  0x3ff00b5030d280dU, 0x5f601ed032c253fU, 0x7f00500efe90104U, 0xb0930b09000ee3ebU,
  0x1f09160305d5ec03U, 0xf6d314b6fdc9eabeU, 0x180702b6e2ed2c22U, 0xfec6d835fcb8d1d2U,
  0xe347011acaf3bf04U, 0xefdc801f12b0d37U, 0xff502080a4ac708U, 0x110944ff04f7fcfbU,
  0x7d6f7b73113c7e5U, 0xfee2bbc3d0d5fc00U, 0xf5400206da2d4107U, 0x3bd3c30303fcee46U,
  0xff0a20164dd004fcU, 0x3270d5330fb0105U, 0x5130107f4fe4eecU, 0xe0ad80d33141bfdU,
  0xddfe106fb0436c3U, 0xf8bdfdb73de4f154U, 0xd6da21193954fafeU, 0xffbfc9cf5642ed16U,
  0xacc111b19ecfdc8U, 0xd3063e0402093902U, 0xcbeb03fedd0801d6U, 0xf4f4feeef905db08U,
  0x200e0d39e940fb41U, 0xdf42e3b072b3643U, 0x114d03bb18ae00d6U, 0xa363404d5273b01U,
  0x916f90400ffdccaU, 0x51b11f506dddfd1U, 0xec1cfd2007d40108U, 0x1526f1cfd6ba31fcU,
  0xdd14fc10033e2002U, 0xf835061b04401efaU, 0xf5f0fb10362ae6d2U, 0x21337ea01fa424dU,
  0xc1a750dd5efbdffU, 0x1ec738def52d1336U, 0xfcc155f30a50c609U, 0x4100607fffa03f6U,
  0xb9eb2e232a1fd608U, 0x6e1d2418d3dcec0bU, 0xf8ccccf4e4314308U, 0xfe3229ca02f8f144U,
  0xd54303e647cc0910U, 0xeafe04f13303fc09U, 0x1513c31dfef853dfU, 0xbbdae81326081ff6U,
  0xaefd527fa062bccU, 0xcb380ddb36e7fd56U, 0xbbbe0bef3449fb06U, 0xe3dc27f95b37f016U,
  0x7f1f201f9d2fc10U, 0xf42c2831d5093909U, 0x44af0fdfdf706faU, 0xfffafbfcf5e802f3U,
  0x3a25f13b2b0ffe42U, 0xfaf32e2dfbef364fU, 0x11b4709fd4003e1U, 0x5331d4610334603U,
  0x46f6f8fc01fc0709U, 0x38fdfffc06130611U, 0xfa004cf8d51f0010U, 0x181237fb250ee3bdU,
  0xfe1b32eee70af8ffU, 0x3a21fc5bff45e531U, 0x4a49fbf8e6e90a0cU, 0x4d422b22012655dcU,
  0xf42c0003fdd5020fU, 0x44c0d3e6cf0e3709U, 0x11b409ecdcf7f900U, 0x18111a15efdc05ecU,
  0xb0c805dc15060543U, 0x14f5d6c901053e35U, 0x5c3d3fd033807d1U, 0x4dcd5d711363404U,
  0xdd0a0bf60b090609U, 0xd2fb0802091a10eeU, 0x1316c306d51afd0bU, 0xbfcbdc221b1ae6c2U,
  0x23cedd04d506f904U, 0xd0cc05b6fc3dfc19U, 0xc3ba0ef2efe9051aU, 0xcecfe0e1051f42e1U,
  0xcce4a519cff2b5fbU, 0xf20aef02f6250439U, 0xf6b0080820d006U, 0x1d417f3f6eb03f4U,
  0xff1c3e83115b9faU, 0xb0d9e0f9d4dfee06U, 0xe54502f2e30b420eU, 0x1cefe50202e9e544U,
  0x59e120749c70003U, 0x7121a2432fcfd00U, 0xcc1702e1eefc53e2U, 0x1e18dae42e0810f8U,
  0xf1ece9c7f80b1bc4U, 0x2f4d71e37e9f249U, 0xe2e710154139f9f7U, 0x319ebcb4c44fa1bU,
  0xd2efb30f211e7c13U, 0xee10f10c19c329ecU, 0xbf2b30df0c356f8U, 0xf2db05f8010f0409U,
  0x2cf5c6f9b3f13f38U, 0xbcd0f9f47a152d40U, 0xdc4f05fa01bbdbecU, 0xdffec0a053729dcU,
  0x4b50711e15a02e5U, 0x16ff031ada0106f9U, 0xbc2204d50c12ba28U, 0x3223d7e1b9cbfa0bU,
  0xeeffe7c808f0ea33U, 0xfde5c832d12712efU, 0xd3e4001adcd012f1U, 0x42fefb4d8f328fdU,
  0xde5b051b10dc08d1U, 0xefbbd01f20a3b01U, 0x2f20706db1300c6U, 0x21023705ef00d00eU,
  0xf4d6f5bfe14dff3aU, 0x18f5bec6091e2e3dU, 0xe64102fa19a200d7U, 0x4fcecf01e83934ffU,
  0x20a37110503f6b7U, 0xfb38343f090209c3U, 0x712fc0c03df0607U, 0x17d912c6aa34f9U,
  0xdbeefb04421e07U, 0xf8c0edef09422100U, 0xdae1381b4231e8d2U, 0xfcd9bec9f8fc4762U,
  0xd0fabe0308cdf9caU, 0xf023f82c00044802U, 0x83fc403f50dfddbU, 0xfef300faf902d80dU,
  0x2615caf3ea39f944U, 0xd7d4ee02fb1e3b4dU, 0xd918350603b900ceU, 0xffe8f337d33d4204U,
  0x50c6fe0001f4d9cbU, 0x2ff8f8ff05d2d8daU, 0xf4fe48d406d80b0aU, 0x300616fcd1b628feU,
  0xf4ff2dbd033a1af9U, 0x2df4ec33053f25f9U, 0x2d32fa0b2823d4d3U, 0x4641ec1b01f4424cU,
  0xce40b0dd7ddcbfcU, 0xf8ff3a04f524fe34U, 0xf8fdf0000137bf02U, 0x1e628f6efe1fbf1U,
  0xafe024d3222c4f0U, 0xa1f504ac7cdf000U, 0x103303dad018420aU, 0x34404c0204f7ee3eU,
  0x414330531cdfc00U, 0x449382738f7f806U, 0xda0bff18ebf044d6U, 0x2107ebd9180a24faU,
  0xeaf7f904eb0a12b5U, 0xf850e7163bf3df47U, 0xe7f01e183d2c0106U, 0x1145dc393de61dU,
  0xd2f3c8fcf505010cU, 0xfb39f7402529df3cU, 0xb3fc0ff2b14f821U, 0xfaea05f900fd0827U,
  0x3615bcef61eefed7U, 0xd5d2f9f401f2dedaU, 0xde0d4710fa4f441bU, 0xece448fadce24aU,
  0x4dc9f60446fe0124U, 0x2df1fd0435fc0220U, 0xf4f345e2060d44eaU, 0x250a12f44b3e0617U,
  0xe90126b41e0202f9U, 0x39f9e24447d4edf3U, 0x3241fa07f708010dU, 0x4a3a010d2ef5dbffU,
  0xffffffce000001c8U, 0x11b00000090U, 0xaa000001efU, 0x1740000022fU,
  0x1e9ffffffffU, 0x5300000095U, 0xffffff81000000bbU, 0xff00000070U,
  0x4d00000013U, 0xcafffffff5U, 0x1b000000feU, 0x4500000101U,
  0x8000000093U, 0xd9000000fcU, 0x1e00000143U, 0xf600000327U,
  0xfe1c113491180ebdU, 0x121413208111a8b4U, 0x1ca532171910b114U, 0x1a93efe5ac14129cU,
  0x30eaa8e0f316161aU, 0xee14f59a24b71712U, 0x98e917db139114a9U, 0xa60b0aa31216070fU,
  0x21c3942535bf19e6U, 0xeffb834199c1adaU, 0xc01525a0d7bad6f2U, 0xaf18b72b1cda2d42U,
  0xe7ba14c0ac2a0f2dU, 0x1aacd14a8199abbU, 0x1323bd28aa31ef33U, 0x1513ad0eae8b16baU,
  0x5100000004U, 0xfffffff3ffffff60U,
};
