/**
  ******************************************************************************
  * @file    network_data.c
  * @author  AST Embedded Analytics Research Platform
  * @date    2025-02-07T13:38:23+0100
  * @brief   AI Tool Automatic Code Generator for Embedded NN computing
  ******************************************************************************
  * Copyright (c) 2025 STMicroelectronics.
  * All rights reserved.
  *
  * This software is licensed under terms that can be found in the LICENSE file
  * in the root directory of this software component.
  * If no LICENSE file comes with this software, it is provided AS-IS.
  ******************************************************************************
  */

#include "network_data.h"
STAI_ALIGNED(8)
const uint64_t g_network_weights_array[338] = {
  0x3952578d3a1565e3U, 0x39922a4cb9442851U, 0xb9dfe9a0ba1f2a55U, 0xb8ba43d5b92bf719U,
  0x3a41fded392c797aU, 0xba849b3839c3bb7bU, 0xb9b6d7b1bafd6fbeU, 0x3a9fc9f739786933U,
  0x3a8469c6b82b8f45U, 0xb9a7c133b8c5b817U, 0xb9559321b712b829U, 0xb93a1013b9bd934eU,
  0xb9377fa439dd738fU, 0x39768daf392043f7U, 0xb9e94f3bb8ac0a8aU, 0xb99a7221b919ed05U,
  0x395e7f01b9bd4b2aU, 0xb9d57627b9dc9f59U, 0x397043dbb9977f9fU, 0xb92da2bfb89281ecU,
  0x39a78eb4396f0c49U, 0x39b59bfdba049a47U, 0x3953605c39a121c3U, 0x3a290ce4399819a0U,
  0xb9e60cd2b9b4aaccU, 0xba620bf6b97a88b1U, 0x3a33f6bc3a118c42U, 0xb77e902139be9bacU,
  0x384fb0d83a5ce625U, 0x3a1fef1e394aaa4cU, 0x39034e9539857bd3U, 0xb974d13237cf9d48U,
  0xb91a2b703964e9e2U, 0x3a0664073a05a15fU, 0x3993e967b854101cU, 0x3a20cabd397186c8U,
  0xbd7ab29f3f8ee05aU, 0x3f82e3953f05c2ccU, 0xbf73b510bf858d19U, 0xbeee838fbede6259U,
  0xbeb546a73f04e3bcU, 0x3e1b4ab1bc7175c5U, 0xbea9df003ea4d425U, 0xbe0048e0beb11edcU,
  0xbec037513dfab780U, 0xbcc5cc34be994caeU, 0x3e80d9443e3f9fb6U, 0xbdb11df8be7c50cbU,
  0xbd8df3e8be5b1bb0U, 0xbd72a6e5bebe758dU, 0x3f0adc6cbede1a15U, 0x3d453b08be24aaacU,
  0x3dd71016bd9e2581U, 0x3e3420fd3e2c5469U, 0x3e27a2e93e617e58U, 0x3e8078d03dae2ac8U,
  0x3dda356f3e3d7b3cU, 0xbdce98463d6befa1U, 0xbe831ef9be334649U, 0x3c0f49fa3ebe3d02U,
  0xbd8b0d0d3c97420aU, 0x3e8cdf3c3d31f917U, 0xbdb5698ebe8ac0a7U, 0x3da4865c3ea36322U,
  0x3de3e22c3dfb8dafU, 0xbdcc8cfabf005fd9U, 0xbe235914beecac13U, 0x3d112af43dc53b71U,
  0x3f18c379be8ca014U, 0xbf0a96073ef3e1bbU, 0xbeea66bfbe51909eU, 0xbe0e1effbf46489eU,
  0xbda7fc12beb0b2c3U, 0x3e592aedbefc4dceU, 0x3e874602be079f3bU, 0x3e4ab1f43edc6a98U,
  0x3d9bccb13efc5fd2U, 0xbe0951cc3c05443cU, 0x3df2c2b3bec610dcU, 0xbe5cee613e61747fU,
  0x3e9934dfbdf59a64U, 0x3e4ce7533e56ef51U, 0xbe3d7c9f3e69eacbU, 0xbe00e012bd5a2237U,
  0xbeaad7dbbd80ee2bU, 0xbeab8596bef4ee48U, 0x3e9990e23e88276fU, 0x3e9517d7be7a3db7U,
  0x3e3021883dce9a9aU, 0x3e3c6b483e91b407U, 0x3ba56badbdc8c187U, 0x3bf1c7b83d4fa82fU,
  0x3dd7774b3d793a29U, 0xbd3bcc1a3e48ecdeU, 0xbd1870613dd743c3U, 0x3d948641bc5bda7aU,
  0xbdaece70be5d64d0U, 0x3e1e4c563d978870U, 0x3d8f60943f0c8ebdU, 0x3de4b20c3dcce038U,
  0xbe4acea2bf38d03dU, 0xbe04b9e43ed6b23cU, 0x3f6beb7abefa8fa0U, 0xbebf0ac53e79aa97U,
  0xbdaeeb0cbe88ed9fU, 0x3f22c181bea67cabU, 0xbeebbd03bed4c4d6U, 0xbf3d93a03ecd0b9fU,
  0x3e39ec393f41061cU, 0xbeeeaedbbdc40f1eU, 0xbf57ef953e9d5688U, 0x3f3b20b7bf1d3c0fU,
  0xbc75f5763d8bdd25U, 0xbee3fcd9bd91b401U, 0xbea53862be2f9e33U, 0xbf00c380bc93b645U,
  0xbe116d873eabbb9eU, 0xbeab2612be3f7f13U, 0xbed6dc0fbc2bdb1fU, 0xbd9d1d6abe6ad5b0U,
  0xbe496796be185000U, 0x3d3e2312bc8d4c46U, 0xbe6594acbe4c0762U, 0xbe9140013e42784dU,
  0xbeada3f9bd5f4768U, 0x3df692333eaa60aeU, 0xbf0e7addbdd018feU, 0xbd96dbe53e8d4e01U,
  0xbf0c9eb7bd193332U, 0xbf1cc08c3e74f9adU, 0xbebd7d4c3e0b1a4aU, 0x3e1c5a41beddb447U,
  0xbecef686be4ca1f5U, 0x3df2bea2be587f2eU, 0xbe669f213ecf67b3U, 0x3e176c6ebdaf6d6cU,
  0xbefc12183e5cc4bbU, 0xbe02c79c3f7f308eU, 0x3ed059babf55b2a3U, 0x3faaf4da3fb42776U,
  0x3f2cbaf23edcbd49U, 0x3f6979583e8a34dcU, 0x3ecdde89bf3bc6a7U, 0xbefc5920bebde2cfU,
  0xbf968d13be6d6fc0U, 0x3ee2e97abea64e2fU, 0x3f33278abee46239U, 0xbfb49affbf21c630U,
  0xbf5e8186be6def48U, 0x3ec1aa2abf1dec18U, 0x3fb77140be863a65U, 0xbd7da9034000447dU,
  0xbe08fd3ebf5f8f94U, 0x3f21127e3f6210c2U, 0x3dfde5283e9931dcU, 0xbfc144da3f21d3c4U,
  0xbf8d7a7ebf8efcbcU, 0xbebc379abf63af78U, 0xbf479b2a3f2ced9fU, 0xbeadc6e3bf505b44U,
  0xbf1d07cbbf7adfceU, 0x3eb1c4593fd61b9cU, 0xbf788598bca790b4U, 0x3e289b32bf3d44c1U,
  0xbe9b87f1bea7ff98U, 0x3e838e51be47149bU, 0xbde7633b3f6171b1U, 0x3f73e2f5bf255cf5U,
  0x3e08d4adbebc2b18U, 0xbe9594e0bb09ccb0U, 0x3c5e70dbbe60b4f5U, 0xbca47b78bec4cb77U,
  0x3f18fded3d89e5cfU, 0x3f043b013de671ddU, 0x3cf83edc3e0c9a57U, 0x3ead21a4bf044b1bU,
  0xbe7e12acbd465b5bU, 0xbe8bccd7be9f97e9U, 0x3e204a2ebdcd864eU, 0xbcc34c8ebf161372U,
  0x3e7558623f27631eU, 0xbee0ab4dbeae0b08U, 0x3ee54685be735c3bU, 0x3ea196f03f024ce0U,
  0x3efdce3d3f4cda01U, 0xbf349fab3e40df05U, 0xbe3009c93d0429c6U, 0x3e9d3a513f7381b2U,
  0x3ee800913eaef69fU, 0xbf5fb1813d5c693eU, 0xbfa5d1113e8d5c3bU, 0x3ea0ac433e8f574bU,
  0x3ee4acee3ef28c6dU, 0xbfac453b3e7dcd84U, 0xbfaa4c123efc3887U, 0x3e93f3703e5d39efU,
  0x3ebeb0d33ec6e2f5U, 0xbf91f71c3e943231U, 0xbfa5a7453edd3854U, 0x3f0647213ed30f5bU,
  0xbe0eecbdbc8c58f7U, 0xbca52cf8be5a7587U, 0x3d7b977d3f10cf75U, 0x3f2ba776bf1170d6U,
  0x3ec64573beae1c85U, 0x3d4cc28d3e1e32acU, 0xbdb0e28abee87196U, 0x3d02409bbe9dcd1bU,
  0x3dcaeecfbdc8810dU, 0x3e905e463bec3183U, 0x3dab20c23f2aa13cU, 0x3f3970d1bf18eaf0U,
  0xbe468faebd993824U, 0x3ea9e8f23c2178e8U, 0x3e94be96bee70637U, 0x3e13531c3f80da56U,
  0x3e6cf4d23f58559eU, 0x3f80e600bc70176aU, 0x3f0a795ebf474f30U, 0x3f97e1273e86a263U,
  0x3e5c36323f16c32eU, 0x3e55eebdbde5b1b2U, 0x3f47932f3e8159ddU, 0xbf5a12fcbfc13477U,
  0xbe9a7b3c3e9f7b84U, 0x3f53d3b1beff4792U, 0x3fcbe340bfa27da3U, 0xbeaab685bfe4f48fU,
  0x3edd09cc3f06e491U, 0x3e840dffbedfbe3aU, 0x401593f1becb9bfaU, 0x3f3da2703fa1fa02U,
  0x3f0795253faee416U, 0x3d4badcd3f2029d1U, 0x3f1bb933bf0ee637U, 0xbe9c452f3fab9437U,
  0x402f66133f84033dU, 0xbdd4f15cbe400a4aU, 0xbecd62fa3d3f8388U, 0xbfd910d6bf82e2ceU,
  0xbc7a6a94bdf40ee3U, 0x3de734afbd055e74U, 0xbd2bc5473dd98772U, 0x3e2908b1bd92d1eeU,
  0xbdf7db74be21c47fU, 0x3d0f1e98bd903d31U, 0xbd5b09323e30b50bU, 0xbdc8f957bdf9d554U,
  0xbdfcb527be0b6a21U, 0x3d14038abd659dceU, 0xbd5212da3e331410U, 0xbe0db312be07c7feU,
  0xbe114bcabe0ac268U, 0x3d8ef7b7bd9c328fU, 0xbd8878333da74e2fU, 0xbdb858b2be0061d2U,
  0xbe1dab88be254957U, 0x3d3fe1d7bdac0001U, 0xbd8f3b4c3e7db0c9U, 0xbe15be06bdfb2910U,
  0xbe0489ddbe4c02e5U, 0x3d45738bbd835a99U, 0xbd6d25dd3e7bce5bU, 0xbe21bbdabdd1f028U,
  0xbe43f1393dc5985aU, 0xbda3354abd909610U, 0xbd8531e0be171854U, 0xbc9dcc433dadc8c5U,
  0xbe44bd543dfd3d11U, 0x3d151a86bdbf8f97U, 0xbdc24c32be4c4bf8U, 0x3e613a593d834255U,
  0xbe21ea863dcf1a9bU, 0x3d80eefbbdd35e6fU, 0xbddc7222be1361a2U, 0x3e5b38943d90ccf6U,
  0xbe3fb33a3ded8c0eU, 0x3da26299be1aecb7U, 0xbdd29f71be1fec06U, 0x3e3ea5703c268c40U,
  0xbe5b8b373e146447U, 0x3d8dd613bdd0da8bU, 0xbe070a49be153e7eU, 0x3e4b663a3c7e59f1U,
  0xbde51be73d8b2deeU, 0xbd05c909be32b1b0U, 0xbe16b85abe0e85fbU, 0x3e4b180c3dfe98a5U,
  0xbded244dbde8d563U, 0xbddbade23d8c0f98U, 0x3db21148bd80246aU, 0xbdba59a23d49dab0U,
  0xbd92d453bdf91db9U, 0xbdd6787c3df5736dU, 0x3e0172e7bdb4c08aU, 0xbd14bd463da14d54U,
  0xbda02dd8bde06e03U, 0xbdee86d43da7accdU, 0x3df54e38bde86cfdU, 0xbccdefea3cb5aaf2U,
  0xbd96c138be108753U, 0xbde8080c3e2fa4b1U, 0x3e353427bdd8aa2dU, 0xbdaec3fd3d7ae864U,
  0xbdc6ee79bdb89195U, 0xbdd042273e0556feU, 0x3e3b11b3bde7989dU, 0xbc72192a3dd7535cU,
  0xbd9665bebe12f729U, 0xbdc1e46b3e3b9e5dU, 0x3df8c27cbded501fU, 0xbc9a24da3d69bff0U,
  0x3e79bcc63cafed95U, 0xbe1c7e11bd58b353U, 0xbd3376c8bd1d416cU, 0xbe60eeb1be0685f9U,
  0x3e30ad743c0b8312U, 0xbdaee47bbd4e05aaU, 0xbd9178adbd7206b6U, 0xbe3814a5bdabf2c9U,
  0x3e3f99c93d42963eU, 0xbd9fe75cbd8a338cU, 0xbd87e72bbd0be5b3U, 0xbe1368e3bd8f7320U,
  0x3df723ee3d8871b2U, 0xbdf05de9bd5234ecU, 0xbd64e909bc41e016U, 0xbe202628bdab7b14U,
  0x3e88a3063c7f6edfU, 0xbdd575d7bdb318d7U, 0xbdb4561fbe05de33U, 0xbe0a8d6abe0afdc6U,
  0x3e0c05123d911c07U, 0xbd6c5c1dbd9e94cfU, 0xbd77531ebe257492U, 0xbdbcba0ebe34e97fU,
  0xbea281fd3dc01592U, 0x3c96e9f9beb4c13cU,
};
