/**
  ******************************************************************************
  * @file    network_data.c
  * @author  AST Embedded Analytics Research Platform
  * @date    2026-04-14T17:11:17+0200
  * @brief   AI Tool Automatic Code Generator for Embedded NN computing
  ******************************************************************************
  * Copyright (c) 2026 STMicroelectronics.
  * All rights reserved.
  *
  * This software is licensed under terms that can be found in the LICENSE file
  * in the root directory of this software component.
  * If no LICENSE file comes with this software, it is provided AS-IS.
  ******************************************************************************
  */

#include "network_data.h"
STAI_ALIGNED(8)
const uint64_t g_network_weights_array[338] = {
  0x38efbe103a0ad094U, 0x391d51d8b95bcd34U, 0xb9ffa133ba25950aU, 0xb90a796fb99fd900U,
  0x3a3baee23923a38dU, 0xba6e8b1c39e279b6U, 0xb984f37dbacb9f93U, 0x3a91f1a339708b77U,
  0x3a985c32b94404f9U, 0xb960b223b825bb3cU, 0xb88a69eab90f00c9U, 0xb9909b5ab8ced281U,
  0xba19341db981841dU, 0x39a7fcf9b8252c77U, 0xb99556b5b8cbf101U, 0xb9e6c83a38e67808U,
  0x388d6e48b9db3595U, 0xb993808db9900f87U, 0x39995024b9cbc47bU, 0x38b2830bb81159efU,
  0x39b823d139b2ef30U, 0x39884349b9efc6beU, 0x38883db3399d5748U, 0x3a2648ef386e4373U,
  0xb9f3ee52b9f4575bU, 0xba3afff6b8952ca1U, 0x3a1ec1e63a12ddebU, 0xb9c6fdde3a0984f4U,
  0xb890615139f4d26aU, 0x3905477d397f0949U, 0xb879b9ca39f2a287U, 0xb95513e2394e0898U,
  0xb986231e394749c3U, 0x39aa94363a13c233U, 0x39d5c2043889741fU, 0x39e6b285392ee171U,
  0x3da132de3f919ea7U, 0x3f97e63a3f1cef21U, 0xbf639430bf839717U, 0xbe9133563d47bcaaU,
  0xbe9bea653ec09118U, 0xba87ccf63acb0b9cU, 0xbe6b7dca3ef6c04eU, 0xbc9e947ebd22fe7eU,
  0xbe9668433e148d09U, 0xbd258a143d0ed7ecU, 0x3edd5bbd3e2f9acfU, 0x3cc70436be034878U,
  0xbe372123bea78849U, 0xbd923898be997a9cU, 0x3f108f4abea37250U, 0x3d3e6f7fbe087648U,
  0x3e00b611be054984U, 0x3e6526d03dc6c8d1U, 0x3e7376513e4ec604U, 0x3eb3d258bd3702a0U,
  0x3e56c6f53e08a245U, 0xbe79fba4bd991f67U, 0xbea9b705be830f91U, 0xbde44d483ea81a88U,
  0xbe32105bbd9e8609U, 0x3ec88ba0be42cae7U, 0x3e3bc195beb25758U, 0xbdc085383ebef36aU,
  0xbc9b244b3cdcbdcfU, 0xbe29208dbe23dd64U, 0xbdb0a093beab61b5U, 0x3e2989f13dc72ac9U,
  0x3e8ba176be2ad91dU, 0xbea4138abdcb63f1U, 0xbeac0a113e2588a1U, 0x3c7ccfbbbea0933aU,
  0xbe67ce74bea97f1dU, 0x3cccf55dbeac9b6bU, 0x3d8403fcbc89bdf1U, 0x3da4b1d23eb28faeU,
  0x3e430d703efd749bU, 0xbe1bdfd03d5758c7U, 0x3c96452dbee44dcbU, 0xbcbbcc6c3e382f49U,
  0x3e8edcb9bde3bbacU, 0x3ed35de33e896c61U, 0xbe6bba213ed2bf14U, 0xbdfeb2bc3d70fda0U,
  0xbeb69631be717872U, 0xbea2340dbf06c81bU, 0x3de6626f3eab9aafU, 0x3df0c8febeac5458U,
  0x3e9a802e3d45dfdaU, 0x3dc3a1e73ea7a1c7U, 0x3dfbaffbbe8f5532U, 0x3d7340f73d975dbfU,
  0x3d3719ff3debfc78U, 0xbde678783e9c6a77U, 0xbd73532c3ceecaf4U, 0x3e54c529be60ee01U,
  0xbd9e7d41be557688U, 0x3e2c97e13e87c2acU, 0x3daddbfb3f14b0ceU, 0x3dc784493cb88a9dU,
  0xbd9e9193bf2a8e56U, 0xbd9cd9c03ebce6dfU, 0x3f519352bedd879cU, 0xbea1af3c3e4979dcU,
  0xbceee246bef117b2U, 0x3f2988f5bf063700U, 0xbebc3894bee5fd69U, 0xbf3481e83e9493a4U,
  0x3e7580ce3f01b06fU, 0xbe4071913d20d65eU, 0xbf75c4433e775560U, 0x3f108692bf1a499eU,
  0x3e4878363e25385aU, 0xbf18defcbddf9bc6U, 0xbea51048bea056edU, 0xbf5228ed3e460b1bU,
  0xbc6cc67b3f003f47U, 0xbed5b540beb293e9U, 0xbed3a58dbd2a8a7fU, 0xbe132871be43eb11U,
  0xbe79ecb8be7a61daU, 0x3e29d78abdafa775U, 0x3c094877be206ea6U, 0xbe8cbb4d3ea1ac84U,
  0xbf0842d43c9ac90dU, 0x3e050cf33ec5a9f3U, 0xbee161f0be84fb83U, 0xbdcd41263ef3260eU,
  0xbf2ce2f53c7df8b8U, 0xbf38a11f3e66566dU, 0xbecd557f3b136ea5U, 0x3d829af6bebd8261U,
  0xbee409d0bdcabec3U, 0x3e4ffcbbbe7d5fbeU, 0xbeaca8623ead2f39U, 0x3e4a052b3d884a9eU,
  0xbe4da8e1be1bfd50U, 0x3d28c2cf3f71e11dU, 0x3f22c463bf6611c8U, 0x3fc3e11e3fb2dafeU,
  0x3f2782693e908ccbU, 0x3f8fd380be9e1f2cU, 0x3f4e4280bf7a81d8U, 0xbf4aab80bf31c685U,
  0xbf31c4e0be34fb78U, 0x3e2318e6be9007eeU, 0x3f78d362bedd3412U, 0xbf89a31ebe9aaf9aU,
  0xbea26cdb3d09e81bU, 0xbe782c23bf62b9dcU, 0x3faa5e46bef1be23U, 0x3eae4d2e3feeab77U,
  0xbe6e3b0bbf7cff56U, 0x3f83df7c3f51d1f4U, 0x3dd6d9c13f2d732eU, 0xc00f31993fdb8916U,
  0xbfd3348bbf4d8678U, 0xbf6360fbbf17f2f7U, 0xbf16ccc93f88f71cU, 0xbefdd5debfc1d922U,
  0xbf0c428abf89f5e1U, 0x3efe2e003f6ab7caU, 0xbf4a1af4beb2ac27U, 0xbdf912dbbf852b50U,
  0xbe2760603d3529b0U, 0x3f0c75293eb33e65U, 0xbe1c31ce3f6e2095U, 0x3ee9bf8cbeee5242U,
  0xbe5cb7bcbf0e9f81U, 0x3dc204d4bd99ac92U, 0xbd8c25dabe8a7005U, 0xbebbb7fdbe8b9b01U,
  0x3ea558333cbbf69aU, 0x3f39b8b63eb289f3U, 0xbe5b5d523e0bbe52U, 0xbc54cf7cbdd5ef30U,
  0x3da20ee23bd5a333U, 0xbda0ce44bef48997U, 0xbe0054d4be7854b9U, 0xbcdff1b0bf2b0c51U,
  0x3ea243e53ea446abU, 0xbf11fa8dbea6bfbcU, 0x3e94bd80be7daaa3U, 0x3f2f847d3e890d2bU,
  0x3ebd7afc3ea2bb5aU, 0xbf2a642abc8fb7d3U, 0x3d17a10c3c101ba8U, 0x3f34017e3f5a858fU,
  0x3ee8b2093e8a2947U, 0xbf2b8cbd3bf4de53U, 0xbf8581f83e7fc10cU, 0x3f6636f63dd57329U,
  0x3f0a8d553e93016bU, 0xbf9be1623e486c4cU, 0xbf9d1f343f735b00U, 0x3f28a8023e8ef2e2U,
  0xbdea63bfbdeafa80U, 0xbf9966443f419104U, 0xbf8db9823f2e9a39U, 0x3f41d31b3e4d9900U,
  0xbde7cd1d3e636114U, 0x3eb7990b3eb41bf6U, 0x3c88b8303ef0ab7dU, 0x3edd2381bf0c37b1U,
  0x3dabf691bdd86171U, 0x3e5a1da33e8638eeU, 0xbe301ce4bf00cc23U, 0xbf002c183de11ae0U,
  0x3e631a343c011945U, 0x3f4f16c23da570a2U, 0xbd85f1113f0517d2U, 0x3f127188befeee24U,
  0xbd7a91b9beafdf0cU, 0x3ec8d003bf07b4b2U, 0x3f0486e8bf19a7b3U, 0xbd9449d33f0876f0U,
  0x3ec0f99d3f46b206U, 0x3f2d8dbcbf235031U, 0x3ecb91c4bf13da94U, 0x3f9e401e3eea6d85U,
  0x3eef16cf3f2eb8b3U, 0xbe06ad133f802fb3U, 0x3eec05bf3e983765U, 0xbf65768cbfb5efc7U,
  0xbe832953bd386ce1U, 0x3f7d6a6d3e1b22baU, 0x3f8db539bfc2f75cU, 0xbf2cd8bdbff97313U,
  0x3f44dadf3ec1fd7aU, 0x3d78ceb3bf821f3fU, 0x4000af7dbf0dbf41U, 0x3f999d6c3f8cce93U,
  0x3f3770cb3f92e274U, 0xbd954021bef24aadU, 0x3f4d4034bf412d79U, 0xbceea16b3faf4a5cU,
  0x4065a4053f81d0cdU, 0xbe81ce753a099b40U, 0xbf426be8bf527b0bU, 0xbf9c809ebf3cded3U,
  0xbbdbc7e9bc81f87eU, 0x3dcde7b6bd23eba9U, 0xbd1267e53de9a2afU, 0x3e2b2922bd9b5cf0U,
  0xbe1c1d0fbe36b82bU, 0x3d79765fbd94b0a3U, 0xbd3f635f3e509f55U, 0xbde16890bdebe5c4U,
  0xbe35be42bdffd3f0U, 0x3d4f8948bd93ee5eU, 0xbd83f0243e3ed986U, 0xbe2dc5d1bdcf66afU,
  0xbe0eafe8bdc46639U, 0x3dd8e419bd850529U, 0xbd75b4003db1d441U, 0xbdc2ee37be1246b2U,
  0xbe293f89be00a626U, 0x3d320680bd928d09U, 0xbd8b0c1c3e9520ccU, 0xbe1b9044bde8a115U,
  0xbdeec9f7be6020c9U, 0x3cb1fe0abd8ab73fU, 0xbcc13e623e7bd4c5U, 0xbe4568bebe1b63e7U,
  0xbe4540103d83ac5bU, 0xbda987e4bdb69980U, 0xbdad99fabe1d47b3U, 0x3b409c363d166d9aU,
  0xbe2866683dd2f949U, 0x3d4e58d7be0cde37U, 0xbde73d84be444cf8U, 0x3e6c3df43cdbb5b1U,
  0xbe1d0d9f3e0229e8U, 0x3d2a3f5dbdad0fc6U, 0xbdc06264be43920fU, 0x3e4b5c093c4cf014U,
  0xbe4136143dd8a944U, 0x3da7616dbe0e4c89U, 0xbdabc752be398f2bU, 0x3e3399083cbe57b6U,
  0xbe6b68203e2bdc40U, 0x3d5cb32abdc3144aU, 0xbe05f59fbe3aae6eU, 0x3e5f140f3bbcc800U,
  0xbe11cf713dbed093U, 0xbd1d12cdbe421f67U, 0xbe2628d8bdd7ebcbU, 0x3e91b6b73e0b8d0cU,
  0xbe05180cbe18a185U, 0xbe00058b3d4e39ffU, 0x3dfa2b08bc5512deU, 0xbdc180df3dfb724eU,
  0xbd8e1ea0bde7073dU, 0xbe0858133e0c4416U, 0x3e15e6ffbda7c414U, 0xbc9286073de4650bU,
  0xbdb5fec8be092d20U, 0xbe0bcd783cf128c8U, 0x3de06645bdc47474U, 0xbc4573e43d0c61afU,
  0xbd9c7f90be133db9U, 0xbdded4553e2b2996U, 0x3e5039c5bdca4d61U, 0xbd88645e3d92dc08U,
  0xbddcfdaebdb65757U, 0xbddde5a93dce1488U, 0x3e5aa660bdae911fU, 0xbb1911263de4bd8aU,
  0xbd7bf620be17a69aU, 0xbdcfb0633e454083U, 0x3dcf6facbe02eb1aU, 0xbd4c0c453d85c12aU,
  0x3e8aa6acbbce37b3U, 0xbe1aca79bc8e8362U, 0xbd5c824abd8738f8U, 0xbe60235bbe13c6d4U,
  0x3e47a7ee3d31cac0U, 0xbde066a3bd3e0bc5U, 0xbdbff517bde31297U, 0xbe2d116cbd8dbbb3U,
  0x3e75d3403d049b8bU, 0xbd63d503bd382b2bU, 0xbd987905bc9f3d20U, 0xbdf1e626bcf98a1aU,
  0x3df1ba3b3d6d2980U, 0xbe11f343bd555ffdU, 0xbd891436bccd67afU, 0xbe3e8de0bdb68c0dU,
  0x3ea3d780bcc77514U, 0xbd903288bd89e383U, 0xbdc64aeebe1c8dfbU, 0xbe397f38be18b1ccU,
  0x3e32dd613d25fb4eU, 0xbd2bc0c5bd83be00U, 0xbd95a7aabe2d69ecU, 0xbe0f99edbe2cf003U,
  0xbe7cb4d23db70416U, 0x3cf4c883be9e14fdU,
};


