/**
  ******************************************************************************
  * @file    network_data.c
  * @author  AST Embedded Analytics Research Platform
  * @date    2026-04-15T14:08:06+0200
  * @brief   AI Tool Automatic Code Generator for Embedded NN computing
  ******************************************************************************
  * Copyright (c) 2026 STMicroelectronics.
  * All rights reserved.
  *
  * This software is licensed under terms that can be found in the LICENSE file
  * in the root directory of this software component.
  * If no LICENSE file comes with this software, it is provided AS-IS.
  ******************************************************************************
  */

#include "network_data.h"
STAI_ALIGNED(8)
const uint64_t g_network_weights_array[474] = {
  0x3caedd443d972fbaU, 0x3da32e03bdf49462U, 0xbd881c83bd91cf91U, 0x3be5d0f6be0808a9U,
  0x3d96cb76bd0beea1U, 0xbe29a9e63d30e44dU, 0xbd02025abe82568bU, 0x3e2efcfe3d7163caU,
  0x3e4c0c18bdc99d3fU, 0xbda170f7bde168e9U, 0xbcacee1ebd6dd33cU, 0xbd4f7893bceb1cd2U,
  0xbd28e1613de4f974U, 0x3dbe0ca5bc86e173U, 0xbd178b9abcfb17a1U, 0xbd74df1c3d2f8eceU,
  0xbb35f9643be3d61bU, 0xba6dfb5bbda9ced7U, 0x3e0586dbbc82167dU, 0xbb6b4f13bdf2a518U,
  0x3d8737683d217da8U, 0x3c3d1316bde4c3a6U, 0x3d70c9743d9d180bU, 0x3da90785bd4dad21U,
  0xbe1497f6bda575d5U, 0xbdfaa7f13cf9cec2U, 0x3de27c853dfbe526U, 0x3d6242e03e024a3bU,
  0xbde7e6f43d9c7940U, 0x3d721bc43da21044U, 0xbc8e552e3d967d64U, 0xbde718343e09b564U,
  0xbc29c38d3ddb7be2U, 0x3d5646033e188947U, 0x3e14f7f1bd1023c4U, 0x3da4f1203da2b28fU,
  0x3ca3b44a3d5f8bbdU, 0x3a14f1643c7fedecU, 0x3ba5a0e7bbc678f6U, 0xbcd00ca33d11f5efU,
  0x41ae88c34189426bU, 0x41972035419feb56U, 0x4183a3e541912dcbU, 0x41ad658f416b1cafU,
  0xbf128bc7bf5a0930U, 0xbf00ed97be8c8beeU, 0xbeedd03dbefd8f40U, 0xbe421a32bf41a6c1U,
  0xbd75ad5b3d8a7677U, 0x3dce7f3f3ad4a94aU, 0xbd1579a73da7f2fdU, 0x3c93beedbd7c0222U,
  0xbd984e9b3b9ecd46U, 0xbc09999d3d0b8b85U, 0x3d8abd5a3d270e30U, 0x3d99ee9fbd46ce1fU,
  0xbdcc675ebd81a215U, 0xbb8c8fedbd92ebe5U, 0x3d15f8f1be2bae90U, 0x3cec3731bd520131U,
  0x3bda0e19bd933bafU, 0x3d63c17e3d011e2eU, 0x3de7c7533d134e04U, 0x3de0a3e3bcb4ba8dU,
  0xbccdfd54bd319c23U, 0xbe0ef1d8bd5291f8U, 0xba19da74bd8d6225U, 0xbd4802dc3d55d490U,
  0xbd0bb798bd935ddaU, 0x3cc6c8ddbd448fffU, 0x3d3ee4e9bddc8d8aU, 0xbc2a62f73daec510U,
  0xbd2336e23d559b1bU, 0xbb856929bde2f67eU, 0x3d82a820be2664eeU, 0x3d555df83d815f9aU,
  0x3b45bf99bd13a333U, 0xbdd2b5003dbf1e80U, 0xbdbbc9d73d2760faU, 0xbd429eb7be08dbd6U,
  0xbe025990bd80bd74U, 0x3dcfdec1bdfd09e9U, 0x3d7a09d53c8c731cU, 0xbdb64a853c976686U,
  0x3d3e2c373e048f57U, 0xbe0d59113b192313U, 0x3d19a1f5bdc7fde3U, 0xbc89b8143cc100a4U,
  0x3db9124b3bf28eb1U, 0x3a33df693d5a845eU, 0xbddb91f03d3b5128U, 0xbd51a1853d2e71faU,
  0x3d06e6febd4cb53fU, 0xbd74416bbd8be970U, 0x3d38f7993ccbde4eU, 0x3d287430bc653ec2U,
  0x3c4c0cb63d3c26fbU, 0x3cad65d63d451e9bU, 0x3d510e12bd682469U, 0x3b5a57713c990568U,
  0x3c9d497d3d465710U, 0xbc127e1b3c7cee05U, 0x3c117ff7bcb4811aU, 0x3cc84d10bcc47298U,
  0x3c5ac8d4bc4be685U, 0x3d9a22213d04f8cfU, 0x3d15aa5b3d47763cU, 0xb7fd77803d0061baU,
  0xbc4a88ebbde968c3U, 0xba9143713d673dfaU, 0x3d3158e8bd90a67dU, 0xbdae39923d1de05cU,
  0xbc2ffe9ebda37683U, 0x3dd5f2c9bd8bb5f6U, 0xbe04da81bdb49217U, 0xbd21aeaf3d98b494U,
  0x3bc95d4d3d477fa1U, 0xbd274bfe3d8c1ed5U, 0xbdd8a6973c92132aU, 0x3dcec8b1bb835056U,
  0xbcf228e83d992670U, 0xbd4354da3bebe349U, 0x3c080e94bd1852cbU, 0xbdd91c003c401d9aU,
  0xbc4ea6733db5a3c3U, 0xbc767eabbc03b5e7U, 0xbdba947ebc94ee6dU, 0x3d33561c3af5efbdU,
  0x3bf3019dbd11ad86U, 0x3d1eac013d4cfef8U, 0xbb33c4d6bdea749eU, 0xbd24de7b3d6de69dU,
  0xbd38d51c3d53cf74U, 0xbd112f663d9e6192U, 0x3d1f9374baa12badU, 0x389485093abf33c3U,
  0xbd976fa5bd06fb74U, 0xbda96c733bb49a7aU, 0xbd7d0965bdb39770U, 0xbd78f3e7bdc0f656U,
  0xbcefc4423bffcf68U, 0x3d7edfb5bd9d11dcU, 0x3d0750f33cfb2903U, 0x3ddae7ab3cde1601U,
  0x3d37cde53d30d7fdU, 0xbd191c81ba551433U, 0xbd18d292bcd125a7U, 0xbc46c16bbb9360d3U,
  0x40b5735c4113aa85U, 0x4118ca8841750139U, 0x411b671540cf11ddU, 0x416220ff411111e7U,
  0xbf2cc4a2bf41c09cU, 0xbee7f17abf00567bU, 0xbf072a83bf02e9c0U, 0xbf41d442bf2431f1U,
  0xbdaceab33d818da7U, 0xbd62d6d7bdbd009fU, 0xbcfaf1eebd47934eU, 0xbdbc328cbcadb43fU,
  0xbd051e1bbd41ed6dU, 0x3cdb7ce13c87c292U, 0x3d340d3ebd9a0fdbU, 0xbdcfff253b19a6c2U,
  0xbddf2bb9bd81ead0U, 0xbd7c3fb9bcbaff4fU, 0xbbf4dbfabcc5f12bU, 0x3d840f64bd5f6ad4U,
  0xbe085f163d73b720U, 0x3cbcb69c3ba03ef8U, 0x3d843f6cbd6e2e74U, 0xbd02da333c86a19fU,
  0xbd8b0314bd798866U, 0x3c7808793bb53d79U, 0xbd3e58ffbaab09c7U, 0xbd94c422bd62edf1U,
  0xbdccca20bdb90c15U, 0xbcd901983d8d56f1U, 0x3d399d3fbd2d2f19U, 0x3d974e31bc757937U,
  0xbd0f6c22bca41093U, 0x3b8e99fcbbbb36baU, 0xbd8d9ac93d427594U, 0x3caff68ebcc9fe02U,
  0x3a5247a2bdc2de7fU, 0xbd276e70bba8153dU, 0xbc9a2b9a3c8e90e8U, 0xbd09f01d3cd037d4U,
  0x3da838d43cf0513eU, 0xbd3a3efa3d745db0U, 0xbcc65c4dbd08d780U, 0xbd5e95c63cc98931U,
  0x3d448c8ebda0e463U, 0x3cd1e044bc8c9729U, 0xbdcf903ebcf492afU, 0x3d40e29b3cd0b77dU,
  0x3dbf48b13bdd3a3cU, 0xbd24b5abbce35929U, 0xbc438b4bbcd509b5U, 0xbb7cc3a53db3996eU,
  0xbc8049f63caf7060U, 0x3cce179dbbe70714U, 0xbd5325d1bd92cf50U, 0x3c86a0973d5fa40eU,
  0xbc358af6bc41a483U, 0x3d49507b3c98dfb4U, 0x3cf2fdf83c16c87eU, 0x3db3e591bc25ce92U,
  0xbcb91ec03c1af2ffU, 0xbd347e27bcf9a50cU, 0xbd38c7f53ca4c97aU, 0xbc88eff23cd8ddd9U,
  0xba6eb7d7bd0e1342U, 0xbd04b551bd9416f6U, 0x3cfb25533c9006caU, 0x3baf210d3d8a3ba5U,
  0x3d8abedc3d17c287U, 0xbdf86ce13d169ce8U, 0xbd9f2b47bd455e6fU, 0x3c7deafcbd95ea93U,
  0xbd7874633c3ea43fU, 0xbc86e9993bf19d3bU, 0xbd4265e0bd4f8a4fU, 0xbbad96e2bcc45029U,
  0x3da461d83ccd400bU, 0x3c8c08ee3d99d8b0U, 0x3cc099afbb45befdU, 0x3d1a6ca1bd946d59U,
  0x3d8c640abde3f0a9U, 0xbaa81d203c835ee0U, 0xbd358aeebcdb2f75U, 0xbd92912cbdc3e9dcU,
  0xbc9338f83d9444f8U, 0xbbfa0d393c909e48U, 0xbda3ff08bdbabf7dU, 0x3d56602abc5d8bdaU,
  0x3cdae953bc303852U, 0xbdd014fd3d42a09fU, 0xbd91a77c3d28bc72U, 0xbd266776bd88b989U,
  0xbd7d09b3bd0d36f1U, 0x3d85672bbd845989U, 0x3d13aee8bd9a4e69U, 0xbb1fcc6dbdf9835dU,
  0x3d8c9be7bd509219U, 0xbd9977dabd0a95d6U, 0x3d35f0b2bd3d9d7fU, 0x3c7f085bbd2d94aeU,
  0xbc47ffd83d2374cfU, 0x3dec1ba2bd202c02U, 0x3d08f318bbd52c6aU, 0xbdbcd9563d933b76U,
  0xbdcabb8dbd9346c7U, 0xbdd44095bcb8930fU, 0xbe26746fbddf06acU, 0xbe05bffbbe77a1b4U,
  0x41a50f0841bed954U, 0x4199db7c41ab2218U, 0x41bcc1ef416f340aU, 0x41be274541f1b649U,
  0xbf22b390bf8bae74U, 0xbf637614bf0733eeU, 0xbf699d3cbead07f2U, 0xbf28a714be92f81eU,
  0xbdd807fabde1fa34U, 0x3da23f05bdda99b9U, 0x3ccab368bd55d9f0U, 0x3ce41812bd38e9ffU,
  0x3ccd919d3ada1a53U, 0xbce51b2abdd777d7U, 0x3c8d4ef1bd170c3cU, 0xbb2d2705bdb0d2d3U,
  0x3bd819dcbd28e5b7U, 0xbd8482a0bdc99f8dU, 0xbd5a5ea4bd7fbe7aU, 0xbd29e4dabe0665c8U,
  0x3d8b65493d39610bU, 0xbd94162bbd9a2900U, 0xbe325e80bd6faeccU, 0x3dab3e51be1b07e9U,
  0x3d38a42b3d98b0feU, 0xbd80cb4fbdf3cd7fU, 0xbdb675ecbcfaae8bU, 0xbd9f6960bd51c8e9U,
  0x3df6488d3e0ad5a7U, 0xbdb1dd21bdb12b1fU, 0xbd62877fbb2dfad2U, 0xbdb21b44bd900cd0U,
  0x3d8edf363e24a672U, 0xbdbf6da4be017fe7U, 0xbd6c823ebd04e304U, 0xbd646132bdfa4440U,
  0x3d3515f23e4b87b2U, 0xbc9cb3c6bdb0e8b6U, 0xbda07a99bd80fe82U, 0xbdc65b15bdf80738U,
  0x3d2234623e1bcf61U, 0xbd2c20acbc5f9f86U, 0xbdae074abaffe01fU, 0xbdd2eaccbd81a726U,
  0x3d3bc6623e2a519dU, 0xbd102fd9bd3b36bdU, 0xbdcab303bc83a9acU, 0xbdc76112bd124658U,
  0xbc9c63203ded6d9dU, 0xbd2b2fd23ca013b9U, 0xbdae977cbc5a160eU, 0xbda88238bcebc974U,
  0x3b13927f3de382c2U, 0xbcd2b298bd40db3bU, 0xbd86445fbd188705U, 0xbdd17092bc32af92U,
  0x3e097dcf3c8a09f2U, 0x3b48865dbcf405bbU, 0x3c7dedbe3b9712f8U, 0xbc347c783d3776bcU,
  0xbcca17ba3c222f9fU, 0xbb747a543befc995U, 0x3caa2806bd7be3acU, 0x3da222c8bc487128U,
  0xbe14e8cdbe106cf8U, 0x3e1113f33d4e4773U, 0xbd16725abc22fa47U, 0x3da60738bc8cea78U,
  0xbdfb56a0bda803c5U, 0x3e311c693dbe4c9eU, 0xbcb0116a3d5ebec5U, 0x3d4d49443c6d766fU,
  0xbdac0a9ebd82b64aU, 0x3e6d98c53c94417aU, 0xbd962cd53d5a7c9cU, 0x3cd32c7abbde216bU,
  0xbd8d3c50bd560ea6U, 0x3e428ac3bb7ffb0dU, 0xbdf4a1493d8b5083U, 0xbd129ce9bd4ef709U,
  0xbd6108fabd35b71eU, 0x3da672173ae8e5e0U, 0xbdef88f33d8b8257U, 0xbd8c90e2bd88275fU,
  0xbd4850cebcc6b7afU, 0x3ddcfc073c9469e7U, 0xbdcc46f93d801f32U, 0xbda877ffbdb4c928U,
  0xbd71618abd524c55U, 0x3d8b518a3cbe8e01U, 0xbdce334f3d8aea50U, 0xbd9920d9bd95c1dcU,
  0xbd44b88bbd1b4a03U, 0x3d16a9a33d67fea6U, 0xbdb4d4093c87ab1bU, 0xbd8745abbd8edc1aU,
  0xbd15b22dbd6e339dU, 0x3d625845bbcb7d80U, 0xbce184aa3cc8a477U, 0xbd32b289bcfcd8d7U,
  0xbcac076bbd216776U, 0x3d0a050cbb6295cdU, 0xbd11defb3c2c9675U, 0x3d6195a9bd643cbaU,
  0xbd055a08bc220fedU, 0x3d3edda1bc3f7d4bU, 0xbd2beae83c7047c8U, 0x3bc363d6bcf707f8U,
  0xbd1e92dcbc691fb3U, 0x3aba88b5bc139814U, 0x3b72dcdd3c40fd91U, 0x3cbe0238bc801d5bU,
  0x3e090a003c92c9bbU, 0xbde371bbbdc214c4U, 0x3d85cb9b3d7d7bc5U, 0xbca26ee43dc03863U,
  0xbbb709053bb335abU, 0xbd2358dabd032c91U, 0x3bca4d15bc7a4379U, 0x3d2b14f03c6140e5U,
  0x3d679b67bbc9874dU, 0xbded7e77bd8526f2U, 0x3be03c65bdff6690U, 0xbd06e0bdbdf3a186U,
  0x3c91d670bddb7f34U, 0xbe0d0674bd3bdf84U, 0x3dd1855ebe14bff5U, 0xbd140a4fbd4f62a1U,
  0x3d7cc3cabdb6423fU, 0xbe049d75bca6281dU, 0x3dacf57dbe2ff3c7U, 0x3e235c71bd3f3c36U,
  0x3d338539bd81fc32U, 0xbda06269bcef5be9U, 0x3d47901ebde45e1bU, 0x3e17ff55bda07650U,
  0xbd3a9cacbdcd0236U, 0xbd9dc698bc03b7a6U, 0xbbe83ffdbd52510bU, 0x3e20110ebd9dffe5U,
  0xbdc90e61be1ec80bU, 0xbd4275f5bd1f5379U, 0xbd1f6f39bc4501c3U, 0x3e19fe61bd92f160U,
  0xbd825363be0b3886U, 0xbd0ceaf4bcfe398bU, 0xbce4a7a4392eefb3U, 0x3e054ebbbd992f32U,
  0xbd4025e0bdfa8a53U, 0xbd4ba2a23c165996U, 0xbd2b6c65bcca5aefU, 0x3df36fb1bc894c24U,
  0xbdc2ced5bd558d9cU, 0xbd0c1e15bca8a402U, 0xbc78b8903b22b632U, 0x3d3009ce3b86af77U,
  0xbda27e01bd38c42fU, 0xbd7ed811bc45f3bdU, 0xbd23b1683cff1787U, 0x3e18e8b63c0cf2acU,
  0xbe19b3e9bcd291c8U, 0x3d0a9a953d696f2dU, 0xbcc4661b3cafb4aeU, 0xbd6a7f93bc2742e8U,
  0x3d8454d23d504003U, 0xbdb263803da158f9U, 0xbcba91c8bd2d9736U, 0xbd1d3bafbcb1a090U,
  0xbd3fbb81bcd57767U, 0xbd31c1e03d0c23e3U, 0x3be246ef3d2a4b31U, 0xba9df5ad3d5bd7f7U,
  0xbcfcbf9f3d49d726U, 0xbd9e7194bc4bd33aU, 0x3d820ed83cac0c18U, 0x3c3affeb3e2dd1cdU,
  0xbde1e0c03cd86550U, 0xbe1a5cfc3d2da533U, 0x3de12d7b3b4448d9U, 0xbe0226c43e0d96c4U,
  0xbe047a1f3d22d4e9U, 0xbde859e03d538871U, 0x3d575563bc6040f5U, 0xbe0a7cc53d5eca77U,
  0xbe79fb7abdd9a696U, 0x3c6511b1bbf38d65U, 0x3c9a794fbbaefc95U, 0xbe09cf123ddefa7bU,
  0xbdcd463abda0ae8eU, 0xbb950eb93bb70973U, 0x3d8ef862bc913275U, 0xbe3d97ee3e2113f6U,
  0x3b1a0eaebdb22d6aU, 0xbd851c69bba72099U, 0x3e0cf408bccd8bd2U, 0xbe2c06cc3e2e03cfU,
  0xbd3e9ca1bd0f27ecU, 0xbd901addbd429168U, 0x3e0b3a18bd43d476U, 0xbdf7af793dea1ee1U,
  0xbd28c5e5bdc507feU, 0xbd9fb5c5bc973955U, 0x3e07b093bd38f77aU, 0xbdfe76a13d694875U,
  0x3b936fa7bdf9fbccU, 0xbd86cd7cbd527cabU, 0x3db75cf0bcf45836U, 0xbdbd87ca3d3f63efU,
  0xbc7d64debda167c1U, 0xbd30b282bd0753a4U, 0x3dfb5a3dbceec889U, 0xbd459df1bcc9dcb0U,
  0xbe489cf3bd26f676U, 0xbdd924bbbd247342U, 0x3ca36ffdbce33e9aU, 0xbd5736d3bd207c41U,
  0xbe9733d3beb15432U, 0xbe9bbf51be8fa5f0U,
};


