/**
  ******************************************************************************
  * @file    network_data.c
  * @author  AST Embedded Analytics Research Platform
  * @date    2025-02-05T14:48:06+0100
  * @brief   AI Tool Automatic Code Generator for Embedded NN computing
  ******************************************************************************
  * Copyright (c) 2025 STMicroelectronics.
  * All rights reserved.
  *
  * This software is licensed under terms that can be found in the LICENSE file
  * in the root directory of this software component.
  * If no LICENSE file comes with this software, it is provided AS-IS.
  ******************************************************************************
  */

#include "network_data.h"
STAI_ALIGNED(8)
const uint64_t g_network_weights_array[474] = {
  0x3d4911d73da781a6U, 0x3e0ecb24be72ad30U, 0xbe35d506be2b3e64U, 0xbd3713aabe230d28U,
  0x3db6989bbd9b8a4cU, 0xbe19cd4c3d43374fU, 0xbd2004babe8daf34U, 0x3e35e6483df4debfU,
  0x3e975bebbdefde1cU, 0xbd8a14e6bdc21618U, 0xbcfb3e6ebd442febU, 0xbdd60962bc4f6962U,
  0xbd9236a53dc3c320U, 0x3e009cd7bde05601U, 0xbaa876acbd9b5c63U, 0xbe1377cf3d885017U,
  0x3d8b727c3da43e3aU, 0x3da9a872be2c2bd6U, 0x3e5e8cd1bd717773U, 0x3dbc4a03be696272U,
  0x3e1bd3e23dac1396U, 0x3c8c2ef3be591e0aU, 0x3e0cb9123deee5bdU, 0x3e5d8386bcc4f9dbU,
  0xbe40a54fbe0d16edU, 0xbe45ccca3d60c65eU, 0x3e1c898b3e4c1682U, 0x3d3a95513e5f4da7U,
  0xbe7e9c873e5f5528U, 0x3e006eb13e1206ffU, 0xbc0df6f63db22c31U, 0xbe4582bd3e22eeddU,
  0xbd9a1ab33e03afa0U, 0x3d740bab3e5c7b7cU, 0x3e66cbacbdc231b0U, 0x3e50a4ce3d875930U,
  0x3d1c8fe2bd26915fU, 0x3c418df73d008f06U, 0x3c4d406ebc81918cU, 0xbc29ceb13c4909b9U,
  0x4162fa5c412af250U, 0x412756f541638bedU, 0x4134ed33416766ceU, 0x418181d3412a268dU,
  0xbf4558e9be9062c0U, 0xbf1c7ed1bf0161f1U, 0xbf03fdb6bf18fca6U, 0xbeedd99cbf0b6c8bU,
  0xbe09e9a33df3d2eeU, 0x3e0b371c3db1a688U, 0xbe0026e33e181c69U, 0x3d9ac9dabde03d6fU,
  0xbdf386df3cb89d1fU, 0x3c351a233dabc052U, 0x3d6b711d3d035eaaU, 0x3d9c6c4dbd4bb41cU,
  0xbe2912cfbd8b5e91U, 0xbbd0344bbde7ed15U, 0x3c9448e0be3bbd58U, 0x3e0994d8bd5ead49U,
  0xbd949d24bded6fd3U, 0x3d4b5fcdbd97ee3dU, 0x3e66c27d3d0407e9U, 0x3dca1a293c6ca09aU,
  0x3cf04ff1bd9d94a7U, 0xbe23cadcbe0df043U, 0xbb465b75bdbff708U, 0xbd3995d33de4ae78U,
  0xbc9dce45bdc87932U, 0x3ddf6c5ebdb345b0U, 0x3dcc9d11be0cac81U, 0x3c8da9093dfc9d11U,
  0xbddf65e13d2ac0beU, 0x3ca91bb5bd90504aU, 0x3de4a938be776780U, 0x3ccd29ed3d92b15eU,
  0xbd15edb03c58afe7U, 0xbe0b58803de81c15U, 0xbd47fbfc3d877308U, 0xbd44fe66be7002dbU,
  0xbe09ec0fbda712f0U, 0x3d242e30bdd77648U, 0x3d5c95eb3b8c9aa6U, 0xbcb0459fbd68af5eU,
  0x3d71b5833e5dc5d0U, 0xbe4183ad3d04db3fU, 0x3d1215d0be4adc7aU, 0xbd8fe4f53da1683bU,
  0x3e29688fbc093a8dU, 0x3d54a8d23de7bebaU, 0xbe2dd3df3d8d4b26U, 0xbd911c053ddde680U,
  0x3d63dd863cfafa6cU, 0xbe3b4631be68dfccU, 0x3be456b33cb455bcU, 0x3df0fbcfbdb9f917U,
  0x3caffc133d9986a4U, 0x3dbff55abccfa5e7U, 0x3cc0cba8bdc34c81U, 0xbd08719c3dda53cdU,
  0x3dfa1bc43d37c832U, 0x3d070ebd3ca780f5U, 0xbcfd33ebbc1626a6U, 0x3dcd58c9bd1c4153U,
  0x3ceb7516bd0b8c8bU, 0x3e2033e43d0b3e9dU, 0x3dbca49c3d68d65eU, 0xbd90a5ba3cfbcd35U,
  0x3d0fdb48be2dc40dU, 0x3cb397e63da4e8ddU, 0x3e2845fbbdfa1b48U, 0xbddab4273d3e5c1dU,
  0xbca6c90ebdf8810eU, 0x3e5ab396bdc2079cU, 0xbe5b0086be0f185eU, 0xbda697d63dca2585U,
  0x3c95d8dc3db30eb3U, 0xbc1bb4ac3e13960fU, 0xbe4159ad3d8a6374U, 0x3e75d558bd98c843U,
  0xbd85de973d948c38U, 0xbddc25fe3d1495f2U, 0xbdb014ecbcb61566U, 0xbe267ca6bd3a6bfcU,
  0x3cc3ff4c3d9ef19dU, 0x3c6f75873c37abedU, 0xbd84cba7bd4d9fb1U, 0x3dc05b90bd858a06U,
  0xbb019ec4bdd32bc9U, 0x3dd9a0d93dca93ddU, 0x3b838588be65fb0cU, 0xbdec8e8e3dc0c77eU,
  0xbd73444b3d21b46cU, 0xbe27d3923dda153bU, 0xbb93c131bde0f7deU, 0xbce542e63db2f2ffU,
  0xbe0c649b3bc7ce23U, 0xbe5f24553ca45d56U, 0xbd91894dbde023c9U, 0xbbe2b2fcbde06769U,
  0xbcb5ebd7bcd5dd67U, 0x3e11b5fdbdd7d639U, 0xba4c95623de48487U, 0x3e2495ea3dbc2b5bU,
  0x3cd471d13d136098U, 0x3bb0fc893c31ec66U, 0xbbb24a513da72983U, 0xbd097815bcea109dU,
  0x402a6c02403d51ceU, 0x4092cabc40cc1defU, 0x406c097d4006dd70U, 0x40b72a024093674aU,
  0xbf16f542bf1c0d4dU, 0xbed2676dbf3a85a1U, 0xbf1d5cc8beef30b2U, 0xbf25395ebf0d69f7U,
  0xbe0f09ad3db2a0b1U, 0xbdc19ccabe05c5d8U, 0x3cc771a4bdb9c89dU, 0xbe019fecb9aa471fU,
  0xbd1dd909bdb239acU, 0xbda46695bc1f6fb0U, 0x3d77b1b8bdadae5fU, 0xbdeb9a06be185f1bU,
  0xbe2f9b88be05577bU, 0xbc86d5bebb8d6aa5U, 0x3d53663ebd4cc5a1U, 0x3cd815a53db1fd63U,
  0xbe19fb773d74e4c4U, 0x3cdfdd073d4b3cadU, 0x3df7846cbcfcafe2U, 0xbd2616463c9324a2U,
  0xbd97a64dbe162c75U, 0xbd797baf3c4b36cbU, 0xbd058fe0ba427bccU, 0xbd5fc14dbda9ca4eU,
  0xbd9fb595be41e469U, 0x3d8b68c83daa6564U, 0x3b42ae3cbcb9ed6dU, 0x3e144d41bd0ccac2U,
  0xbd67e66fbdc52378U, 0x3dcca743bcf21ab3U, 0xbd235fde3d2eab2dU, 0x3d951d76be043b85U,
  0x3cb35979bd9ba99aU, 0x3c501276bd4298cdU, 0xbd0561cb3d8347cdU, 0x3b0eead63ba2f7b2U,
  0x3e040193bcb86bbbU, 0xbbfe12f5bd252789U, 0xbb994ac73d170a4aU, 0xbd865da7bd667019U,
  0x3da83012be04049cU, 0x3d266f97be0117d4U, 0xbe682b8d3d6a1a54U, 0x3dd13e643b927f91U,
  0x3e18c6cd3ceb1d18U, 0xbc91b9f8bd6b7b9dU, 0xbde8e3aabd527cacU, 0x3dfb51fd3e1ffba6U,
  0x3d0903b739aae82eU, 0xbd0174b53dd4f92cU, 0x3c29aa82bdf43abfU, 0x3baaf6fb3dd274f1U,
  0xbdb22e873c7ee1d2U, 0x3d4b5de33d0326efU, 0x3d0b55ecbbc5b745U, 0x3df7a6833d1c3ad1U,
  0xbdb43bdc3d3b4cb8U, 0xbd8f2ab63d8b15f8U, 0xbc3071ce3d0ac084U, 0x3d42b4e13d370c04U,
  0x3ce372c8bd7ef264U, 0xbdc0c554bd6bfb2dU, 0x3ca17e7c3da439baU, 0x3d0ff7f13e31b56dU,
  0x3df756803da96366U, 0xbd3a7b393dc580bbU, 0xbdcf2802bd5fabc2U, 0xbc9b65f9bdd81accU,
  0xbce27bce3d4d795dU, 0xbdc4540d3d3f6008U, 0xbded0e49be17384eU, 0xbd65f65dbd654f90U,
  0x3dd54f1b3d456fcfU, 0x3b4555a13dae00a3U, 0x3d038ff83c8e6a1aU, 0x3d119885be506edbU,
  0x3d4389b6be158810U, 0xba0ed439bd7dc719U, 0xbdeed402bd871b65U, 0xbdb3d230be0f3b76U,
  0xbcae6d553d9cd7dfU, 0x3cb1c28bbb024025U, 0xbd78474abdc27f8eU, 0x3d8b4a8fbd16dac1U,
  0x3b62a27d3da79d49U, 0xbd2f896c3de5970bU, 0xbe1fdadf3c6c9777U, 0x3baf4762bdf1a2e0U,
  0xbde19ed5be0b0139U, 0x3e27ba743c59cf33U, 0x3d85915ebdae98beU, 0xbd785d78be02bd0bU,
  0x3dee2d44bde827b9U, 0xbe0870f8bdf45520U, 0x3e081954bd1fa2c1U, 0x3c571976bd23a885U,
  0x3d2a2aaa3d8105a8U, 0x3d9bc32dbd60e40eU, 0x3e12b2693cd9c2d4U, 0xbe28ed583c95bcfbU,
  0xbe6211b1bdda1fd1U, 0xbd6cff3ebd33f49dU, 0xbe6b008fbe8ee830U, 0xbe64f1adbe58d76dU,
  0x41437db7414ccd6eU, 0x40e11a4340b25057U, 0x415331be4101cd41U, 0x4113be2c416269b7U,
  0xbf257bacbf68f568U, 0xbf9670ebbf02eae5U, 0xbf434d4ebee698ccU, 0xbf1c443ebf23c827U,
  0xbd771791bd951141U, 0x3ddcced3bc22c665U, 0x3c885445bd8e41fcU, 0x3c987a7cbe0f14bbU,
  0x3cc11495bda5c7d0U, 0xbc9c5327bd51133cU, 0x3d48e93ebd80861dU, 0x3cd433bbbdaa19d4U,
  0xbc79d61bbd6e2970U, 0xbd73754ebda75212U, 0xbde17071bdaadeddU, 0x3addca56be42ff45U,
  0xbcfedfd33dd83949U, 0xbd5563e0be14b043U, 0xbe43aec6be0a6150U, 0x3e350a44be763f1cU,
  0x3d1609743da4047dU, 0xbe18b61cbe17272dU, 0xbd9d867abd149e38U, 0x3c7c836dbdd5ac74U,
  0x3dcde0613e20c837U, 0xbe430079be2ec584U, 0xbc7c1e31bdd5f887U, 0xbcd4db58bd99e8c3U,
  0x3dc5d0103e40b944U, 0xbe0591e1be191967U, 0xbdc20be5bd25cc36U, 0xbcb17ec3bda3ee03U,
  0x3e0040a33e964377U, 0xbc9e5636bd842033U, 0xbdc12271bc88992cU, 0xbda95592bda866b4U,
  0x3dcac50b3e251f7bU, 0x3d06a8723d1f9b3aU, 0xbd76ca44bbb31bd9U, 0xbe43389fbdbd0555U,
  0x3cd6a8ec3e14e29aU, 0x3d9fc92ebd0e1a72U, 0xbdd045a3bb5bea15U, 0xbd9f7759bcb9b88bU,
  0xbd6574d63d90163eU, 0xbc651a92bbdf0ecdU, 0xbde88fc8bc89fa3aU, 0xbdf9d7c5bd26f414U,
  0x3d828b383dd5935cU, 0xbcb07b06bd407549U, 0xbdb6d1a4bd0d2bf5U, 0xbde503d5bcb50ee6U,
  0x3e78f918bca30cb3U, 0x3b460e96bd2fae5cU, 0xbdab77adbceb4cf9U, 0xbdcb910c3d4152f4U,
  0xbd817ff5bd9c3f68U, 0xbd6459eb3d365b35U, 0x3d2a6c1ebdc89452U, 0x3d8613b83b48fca1U,
  0xbe2190e1be128e54U, 0x3dc79eda3dacaebaU, 0xbdcfa454bd448a10U, 0x3d553be1bc97356eU,
  0xbe0c4ed9bdd0830fU, 0x3e2743f73e078115U, 0xbd9faa4fb846fcccU, 0x3b243c643d14242fU,
  0xbd6b61b8bd99d039U, 0x3e6f7f0b3d6d6a37U, 0xbd8e99933d978fa9U, 0xbb84f390bd15db3cU,
  0xbd8a4984be297a50U, 0x3e8db47d3db6567eU, 0xbe5197a83df905c4U, 0xbd750aa1bdc0ff43U,
  0xbd5d44c4bd91b8ffU, 0x3da0c427bb388091U, 0xbe0761903de7a3e9U, 0xbd6a7c34bd5c32d7U,
  0xbcb2969cbd390bbdU, 0x3de78e2e3c9c0b56U, 0xbde90f2a3dfac0c2U, 0xbd99abaabe25e30dU,
  0xbdc09e07bdcab2a4U, 0x3d04e621bc8ab613U, 0xbdd069343e04ad55U, 0xbdb326c4be36691dU,
  0xbd732680bd3f6129U, 0x3d2c65a53cfce9b2U, 0xbdc643c23db1ab71U, 0xbc99182ebe15350eU,
  0x3d27d414bcdf1335U, 0x3d674686bcd3cfa9U, 0xbd1014283cfbab67U, 0x3be5bc4cbdb25e0bU,
  0x3cd906a7bd821a58U, 0x3c8859af3ba66839U, 0xbce257a03d2854eaU, 0x3d2409ffbe00f97aU,
  0xbd71201cbcadbb64U, 0x3ca75b3d3d10ee37U, 0xbc63faa23d6ebc52U, 0x3d2a4f41be057a49U,
  0xbd48f5f93c298152U, 0x3d205c74bba293e3U, 0x3c6cdd2f3c9faf30U, 0x3d96b737bc21756dU,
  0x3dd76e923d5b49e6U, 0xbd81dec6bd1bfcc0U, 0x3da145b53dccf2ebU, 0xbda739bd3e621bbaU,
  0xbcad11643da264e8U, 0xbd35a619bc76133bU, 0x3d2702ad3bf76259U, 0x3c7569ec3da15952U,
  0x3c2cd3bd3b05201bU, 0xbe145dafbce0bd3fU, 0x3d9b1a62be0b28a8U, 0xbdb71a70bda3d326U,
  0x3daa01eebdc249eaU, 0xbe70bf4d3dbc82daU, 0x3df45afbbe4b6bdfU, 0xbc996a6bbcbbff9dU,
  0x3d362b11bde876cfU, 0xbe34fec23dd203abU, 0x3dea2c9dbe81025aU, 0x3de382efbd1d9558U,
  0x3de0fc03be02cda6U, 0xbdcab85c3e069581U, 0x3ccc2cddbe5506adU, 0x3dba469bbc9e5306U,
  0xbce5bf64be0c56f6U, 0xbe03892e3d811c53U, 0x3b1992babdeb717aU, 0x3e1f8065bd0aa761U,
  0xbd7a3094be0a55e6U, 0xbd59d5b7bc8f0c35U, 0xbdc83a21bd3adc74U, 0x3e478b27bccf6685U,
  0xbdb1b738bdc12c25U, 0xbc173bfa3d9136a1U, 0xbdc0ffa7bd37de33U, 0x3e178ce6bda80a02U,
  0xbd8fd1e1bdafc338U, 0xbd67d5323d1c6217U, 0xbcdc1da03ca01cdeU, 0x3e3fbcfbbd1a5c0bU,
  0xbdef99f23ae7ea87U, 0xbd5531fabc9a1510U, 0x39d2d204bd5d5665U, 0x3dcce070bd67f0baU,
  0xbd9bf31bbc5b29f8U, 0xbd15921fbd19be42U, 0xbd15e3233d78a917U, 0x3d829d38bd102e38U,
  0xbe1d03d0bcc5bb31U, 0xbb0d07fb3dda1facU, 0xbcaff6393c82a490U, 0x3d914720bc503e5aU,
  0x3d7395233d33fdf1U, 0xbe3216183c64449fU, 0x3cb1318b3d2f004fU, 0xbd70885dbd22a0f8U,
  0x3bc46046bc1d42b8U, 0x3d7c3d3bbca04453U, 0x3d0c6be23dfef118U, 0xbda460e63dd34563U,
  0xbd7076ff3bd79b76U, 0xbcfc43563d28d925U, 0x3dc819253ddef986U, 0x3c782e0d3e26caccU,
  0xbdc01071bb2e0101U, 0xbdb263a6bcc8c708U, 0x3d75cacf3dbb1c4cU, 0xbe313dc63e52f284U,
  0xbe2c9f3f3cbbffb2U, 0xbd83e1f5bd7efa9cU, 0x3d1c9076bb364f4eU, 0xbe1a532b3de2d7aeU,
  0xbe865d08bdc50514U, 0x3d83bb0dbe00f352U, 0x3b04c39ebc19a70cU, 0xbe277d073c711fb7U,
  0xbe18541ebdb1a2ccU, 0x3d4e2196bded3a17U, 0x3dbb1949bd846940U, 0xbe6d6beb3db5171bU,
  0xbe05ef90bcfcfd17U, 0xbbd2c279bdfaf1f3U, 0x3e635c1bbdbec0bfU, 0xbe44ebbb3e1c3cb2U,
  0xbdcb9f1ebd95f242U, 0xbdd13914be2735beU, 0x3e1d618cbda905b3U, 0xbe10b9133e1b9f3bU,
  0xbda7da44be02e2b7U, 0xbdd9da01bd7c3231U, 0x3de705c5bdab4cecU, 0xbe0197693de455a4U,
  0x3c0e68e6be00fcecU, 0xbd9cb566bd67fd8bU, 0x3e0b916abd2c2934U, 0xbd872a253dd01241U,
  0xbd3bf1f0bd6b8370U, 0xbd17b181bdb87451U, 0x3de9d974bd856c17U, 0xbd86be923cd1d9d2U,
  0xbe724d57bd2814e7U, 0xbdb3b6f3bd72fd11U, 0x3d773bd3bb2af3daU, 0xbd847f48bd5a7a68U,
  0xbe00853ebe7a366bU, 0xbe53bd80be66d2e3U,
};
