/**
  ******************************************************************************
  * @file    network_data.c
  * @author  AST Embedded Analytics Research Platform
  * @date    2024-07-17T17:39:15+0200
  * @brief   AI Tool Automatic Code Generator for Embedded NN computing
  ******************************************************************************
  * Copyright (c) 2024 STMicroelectronics.
  * All rights reserved.
  *
  * This software is licensed under terms that can be found in the LICENSE file
  * in the root directory of this software component.
  * If no LICENSE file comes with this software, it is provided AS-IS.
  ******************************************************************************
  */

#include "network_data.h"
STAI_ALIGNED(8)
const uint64_t g_network_weights_array[450] = {
  0x3ea3ab123f802649U, 0x3f84fadbc0199233U, 0xbf88fff6bfb36c7eU, 0xbe477ce9bff42661U,
  0x3fbd38393e67282aU, 0xbfee04403f865a55U, 0xbf1f5e45c068910dU, 0x3fed61743f94c04dU,
  0x402dcbf0bff20fb9U, 0xbf91358bbf4884acU, 0xbeacf0f0bec18625U, 0xbf5c40b8bf5940a5U,
  0xbfc6be0c3f170388U, 0x3fbb531fbf3ea50fU, 0xbf5466f8be47cb29U, 0xbf1f22f83f037aceU,
  0x3d64ed14be07440aU, 0xbe8c42f9bf16776bU, 0x3f45e849bf9f3abdU, 0x3e1a0226bf895435U,
  0x3f769bf13efb4290U, 0x3f0363fabf4262b1U, 0x3f0d8d183f176397U, 0x3fbfbc69be98adc9U,
  0xbfbc9d61bf4a9064U, 0xbf94899e3e55d958U, 0x3fc130693f637f02U, 0x3f15c1a9400b7eb3U,
  0xc01e96523fb42ca5U, 0x3e90219d3fb3d268U, 0xbebe1de73f3ac9d2U, 0xbfb6c75e3f8f9bc8U,
  0xbf76ffb83f48aa7aU, 0x3f12cde64009daafU, 0x3ff56cf0bf6611d3U, 0x3fc640843f12e5b6U,
  0x3eba6bd23e34f5d4U, 0x3d5ce784bdc55936U, 0x3d8f0d74bd654ae6U, 0x3c131fb0be1877f1U,
  0xbf16f7b33f2b6f37U, 0x3ec7a2fb3ee38b52U, 0xbe97c1e23f1fa056U, 0xbe812539beff9f66U,
  0xbf41aa7fbde398baU, 0xbdf832683ee7f882U, 0x3f2554e73e81ef2aU, 0x3e2f014fbe56d0e7U,
  0xbecbc180bf0dfa88U, 0xbe7e2449befb249bU, 0x3f1bc644bf40b257U, 0x3ec643f7be6f2052U,
  0xbe957f0bbea54c21U, 0x3c3cfb7c3e4fbf22U, 0x3f5bb07b3c00ba96U, 0x3f2ab509be767236U,
  0xbe3183883d55b862U, 0xbf525541be0511c4U, 0xbe0aebc2bf0107f6U, 0xbe870f653ea3fc71U,
  0xbeb5e376beddc699U, 0x3ecdf2a5be8ecd18U, 0x3f0ac77ebee4f9a3U, 0x3df82a9c3e0893b3U,
  0xbeca2f92be922c9bU, 0x3da4eefbbedec48cU, 0xbe13158cbeb0875aU, 0x3e97407b3e309b07U,
  0x3e32a196be825088U, 0xbf1398a33f3fccb8U, 0xbf1d3db93f06f304U, 0xbd3cd25abf731f46U,
  0xbf213131be807c8aU, 0x3ed41519bed9742fU, 0x3ec65890be40de83U, 0x3aaa4137be5e0ed8U,
  0x3e69be713f5da7ebU, 0xbee6c0833e39c770U, 0x3ecb8acfbf17e829U, 0xbeb7fd383e8c27d0U,
  0x3ecdcaa8be807308U, 0x3e2658673f33ef0fU, 0xbef8dda53ec007b1U, 0xbed1cd6c3eec6481U,
  0x3e75f20a3de7819fU, 0xbf397e5dbee106c8U, 0x3da716e53e248fb6U, 0x3eb0f28cbe92b77bU,
  0xbe4ccc673dcd88b0U, 0x3b74b3063eeeaccbU, 0x3d30afa8bf35b0a8U, 0x3dbbf96f3ea053b6U,
  0x3e5896513ea3eaeaU, 0xbeecb5233ea6c41fU, 0x3ca73786bd650becU, 0x3ea5bcfabe8fd7f0U,
  0xbd366473be57f716U, 0x3ef55fe0bcba78efU, 0x3ef9ebbf3eceacbeU, 0xbdc316603d9504c1U,
  0x3ea3fba7bf3ae9ecU, 0xbcd10da53e739375U, 0x3eea486bbeec4091U, 0xbe7a6d8d3e4fec97U,
  0x3caa6797beffc0b6U, 0x3f1e11cebeddf5d6U, 0xbf2da33abeb20c2dU, 0xbed638443ecce22aU,
  0x3e5c37bc3e276088U, 0xbd3df0bf3ea0814dU, 0xbf2600233edef0a1U, 0x3f6419dfbcf3ddf1U,
  0x3db96de93ee86208U, 0xbf6f5aabbba462ddU, 0xbe257a4cbf12276dU, 0xbf470e2a3ed9283eU,
  0xbdf5aa793f581c25U, 0xbea30089bed0ca3dU, 0xbdc5164a3cd9065dU, 0x3edba8e7bea16ddeU,
  0xbf2094acbe8d27f2U, 0x3e85f0ab3e151cb0U, 0x3ef6dc36bf4f059eU, 0x3d17cf113cd4895bU,
  0xbec45baabeb32937U, 0xbea28c5b3f598f34U, 0xbda8ea983cc41a59U, 0xbe44147e3f3b55b1U,
  0x3d5cce61bd6879bcU, 0xbf4ac8203f0a89ffU, 0xbee38013bdc34d6eU, 0x3d0c6df3beae9df8U,
  0xbe79bd62bee8dffaU, 0x3edf3a53beca3bb6U, 0xbf0913ed3eb96f3dU, 0x3eb1d2d93ea3c1f8U,
  0x3f22ae1b3ebdac85U, 0xbee105003fa5fa54U, 0x3c02ddc6befe65d0U, 0x3f89df003f45fd26U,
  0xbf87bd74b8f4f59bU, 0xbee2f6a2beac792fU, 0x3e3c23283efd51a1U, 0x3f00eec03cfcbb9cU,
  0xbe367f82bf1869f4U, 0x3e407baebe2664abU, 0x3eb450b13e3a9716U, 0x3cdd8952befa7df0U,
  0xbf59f49cbf9d2e42U, 0x3e781f833dc186f1U, 0x3f0454ec3e09c06aU, 0x3fbfe14f3ed5fdc5U,
  0xbfc9dc3ebdaa07a8U, 0x3f35e47d3f080b23U, 0x3fbb17293eaf1c56U, 0xbed5d9c83f0fe0b7U,
  0xbe8ba116bf2ef993U, 0x3d0b3c853e2b1e70U, 0xbdf63ec73fb294abU, 0x3d9ff48ebea9290dU,
  0xbf24832cbfcda252U, 0x3e19ed693fdcf798U, 0x3eda9d4bbe9e7339U, 0x3f9dc6563f2884acU,
  0x3d843cc2beb9601fU, 0x3f8c7618beb4e797U, 0xbea5fe2a3f023e9aU, 0x3ef11bd0be0e759eU,
  0x3d566b50bf4dcd53U, 0xbeea5d68bf213e1dU, 0xbf5867733e8c3f38U, 0x3ebe449dbdad8958U,
  0x3fca8b8b3dc17a85U, 0xbf2c6da6beb4c0fbU, 0xbdaf043b3ec3e1bfU, 0xbf21a5083d4affe6U,
  0x3e98f3c0bee94095U, 0x3b050adabebb4b04U, 0xbea7687d3e1786a3U, 0x3f0e8a903f35ca1aU,
  0x3f506eb03ec78f79U, 0xbf112963bf8a781eU, 0xbf85abb6be8fad03U, 0xbda1c4283fb2cce3U,
  0x3e14dd023f2268ccU, 0xbf6038eebe98e9bcU, 0xbe01aec63eaf2080U, 0xbe359f513f5ed5ebU,
  0xbdb87a03bf549599U, 0x3f4111c83e10d91dU, 0xbf41f7a23f06c9d4U, 0x3f4bb624be236a2bU,
  0x3e33cd9fbefc7cafU, 0xbe929cc2bd1f593fU, 0xbef470573f553464U, 0xbd5353e13f3097d5U,
  0x3e261698beef52ebU, 0xbf5336fc3eba8a5cU, 0xbf6bee573f05f136U, 0x3db9775f3f7fbbf7U,
  0x3f77ac9b3e92205fU, 0xbf1179023f914f49U, 0xbee20994be3b6f76U, 0xbed03ba6bebcac66U,
  0xbd27ae653f21d416U, 0xbedbb3933f1f458aU, 0xbe25206dbf494383U, 0xbcf5d93b3db159e5U,
  0x3f71b08c3f8a44a4U, 0x3dbc58f73f3fbbe2U, 0x3e56b5a53e020a39U, 0x3ece2ba3bf3450f3U,
  0x3f4ce26dbf9a9289U, 0x3e747749bfb642f8U, 0xbf93f9aabebac67aU, 0xbdcc6571becee4dfU,
  0x3e31302f3f84e02dU, 0xbf49b8333ecfb272U, 0xbf6d6605bebcecc4U, 0x3f8f98ddbf61d5aeU,
  0x3e34a7693f7e2b92U, 0xbf533a51bee812e9U, 0xbed342643f816557U, 0xbea17a11bf9e93ebU,
  0xbf0907703e4f7c1fU, 0x3fa7147a3e686a2aU, 0x3f5de066bf96ea55U, 0xbf59d6ee3f0d1cbcU,
  0x3e83f2413d996846U, 0xbec820e9bf58ce4eU, 0x3f8d2fd6bf399b62U, 0x3f1ef04bbeda47acU,
  0xbf5a6ac13f5a99d1U, 0x3f9cd87a3ee95bd7U, 0x3fcd6554bf7af2fdU, 0xbfb01127bdbaaea7U,
  0xbf881ba93f040cc9U, 0xbd60b5f03f1a0be9U, 0xbfc224c4bef38ea0U, 0x3f02d3dc3fe0542cU,
  0xbd97384bbd9255e9U, 0x3e104227bd9679f3U, 0xbc898b093d8d7688U, 0x3d75bdd9be273648U,
  0xbd6eba63bc502e28U, 0xbdb4f4c0be07dd3eU, 0xbc55e7f8bc9911bcU, 0x3dacddc8bddc8dbaU,
  0x3c29c4f93d1ed0beU, 0xbdbbd263be562efeU, 0xbded407abd3b6c1aU, 0x3d2b871abe879443U,
  0x3d372d103e2c08a3U, 0xbd2215f9be3ecd00U, 0xbe145427be1a7d59U, 0x3e3b6b57bdb9cd65U,
  0x3d3271303e408c96U, 0xbdca5773be3d1a49U, 0xbd74d110bd907aa0U, 0x3d611133bd4ce942U,
  0x3e4d4a5b3dee1a1aU, 0xbe150c13be528f8fU, 0x3df281f3bdceeab4U, 0xbc3f371dbe152ff0U,
  0x3e1d7c263def06f5U, 0xbe05ddd5be65482aU, 0xbda74036bca17b65U, 0xbd44dff1be2f6a05U,
  0x3d48a2cc3e2f9338U, 0xbd03c2dcbe2a229dU, 0xbbbf38953d6cc94fU, 0xbdfb5277bdf165bbU,
  0x3dce162e3e2e3581U, 0xbd9b6937be0c396aU, 0xbd06c4a93c3d1ec8U, 0xbe0499cdbca37bbcU,
  0x3dca107c3e5046b3U, 0xbd0c07c7bdf0e95dU, 0xbe19c2bd3dab3447U, 0xbdc455c63d103578U,
  0x3c9d9f9c3dde60f8U, 0xbd2387fabd73cd0dU, 0xbe2053b13da941faU, 0xbdecdb48bc881a4dU,
  0x3dbc9ca03e09d0deU, 0xbd70c9d3bc8f6b41U, 0xbcda91b93daff38bU, 0xbe00cea9bd4c999eU,
  0x3e7f6ee63cfb49f4U, 0xbcfe9c27bd23ec47U, 0xbd9e75e33dd69bfdU, 0xbd9e18f6bcf80701U,
  0xbe36a6a0bd745528U, 0xbd041d8d3d518f03U, 0xbd041b93bca7fe1aU, 0xba682a05bd47a15cU,
  0xbe018f77be38a196U, 0x3e4fb47e3de811e0U, 0xbdd1c5123c600a48U, 0xbbb96f49bcaf6054U,
  0xbe02f119bdbf2ed2U, 0x3e5bc4c93e29b838U, 0xbd8702b43d382f13U, 0x3b192569bd2a0191U,
  0xbd66387f3ab9d895U, 0x3eb2905cbc8efbdaU, 0xbd6b5e6a3d9149e5U, 0xbcc5437ebe22498bU,
  0xbc86da4cbd5e4540U, 0x3ea3d0433dd40db3U, 0xbddea6593de72453U, 0x3c05adacbe0c30aaU,
  0x3d45706ebc13b084U, 0x3dbee38cbd676ef9U, 0xbe41c7f83ddb026bU, 0x3d9000cfbd5bda2cU,
  0x3cce59d6bc92366bU, 0x3e1651933daa9d07U, 0xbdbc591d3da5cfc1U, 0xbd44543ebe15bf53U,
  0xbd0ea41a3bf68facU, 0x3d58764c3dbcd379U, 0xbd833f263cf291f9U, 0x3b0076e5be191acdU,
  0xbd5362c7bdccbe44U, 0x3def1b293e2b1c15U, 0xbe36a7083beca2d8U, 0xbcddc7f9bd8e0fdbU,
  0xbd85d96cbdbb5e69U, 0x3db05698bcc10da8U, 0xbdb3c280bc8ce9a0U, 0xbd5de5e2bcda6db9U,
  0xbd34dba2bbd2a150U, 0x3daf46093d8d6301U, 0xbdd3edefbc3ad07bU, 0xbd1cd01dbdab473aU,
  0xbd634b9dbcbddf08U, 0x3daaeaa33d3d1fe4U, 0xbc28e3893d23eb3eU, 0xbb531c82bd91a857U,
  0xbd81ee6fbd684feaU, 0x3d86740e3d58f2cbU, 0xbcc2732fbc453a74U, 0x3d0bdf773cb4c421U,
  0x3e842f853ddf0616U, 0xbd80d5d0be1186fbU, 0x3da2d73dbceb2856U, 0x3d0ac24c3e42d205U,
  0x3dc39ef73d8cbdb6U, 0xbdd1f82ebd8cd9a8U, 0x3df9fb90bd79bc00U, 0x3de2bc163dc617daU,
  0x3cbb4b12bcbbdd15U, 0xbe5c1719be166650U, 0x3d485bffbe09834aU, 0xbd240c92bdc3a805U,
  0x3d38b744be28299bU, 0xbe84d5663e0095c9U, 0x3deb3199bdb099acU, 0xba9d7c7b3b55f446U,
  0xbdc02781bdc581d0U, 0xbea251793cd8b7faU, 0x3daf69b4bd744642U, 0x3d9dd14a3a94f4deU,
  0xbd4bc17cbe0910aaU, 0xbdfbeb8b3dd1eb93U, 0x3d2e2e1fbd9024e0U, 0x3e0b4c7dbd261d43U,
  0xbc2f4031bdecb1b5U, 0xbdce8c1cbd8bc33dU, 0x3cca0cd8bdba84c4U, 0x3e1a274cbdb9a885U,
  0x3d320872bdd3a6f0U, 0xbd82a90dbd5ede4eU, 0xbcceebf7bdcf5e15U, 0x3e8faf0bbe133ae9U,
  0xbcfb3758bdf2968eU, 0x3d132b8a3d866df8U, 0xbe38c701be017b17U, 0x3e529a22bdbf8fbfU,
  0x3d0320b6bdbb62a2U, 0xbd3546d03c835bebU, 0xbe1523d0bde6063aU, 0x3e1dcb8b3cd059d9U,
  0xbd9fb1a0bd19a41fU, 0xbd1f91123c9d87f9U, 0xbbcf9ba3bde2c27fU, 0x3e52b95e3d07eb20U,
  0xbdbbed8cbdb6b05aU, 0x3d2e2bb7bca3d4e8U, 0xbd48c3dcbd89899fU, 0x3dedaef2bab4566dU,
  0xbe1399dcbd92920dU, 0xbbdd7bc53d8ebad0U, 0xbbc704ecbd4e5a92U, 0x3d20da2dbd4abd88U,
  0x3d33099dbd570ebfU, 0xbe0747533d862389U, 0x3df4eddabd8acc0cU, 0xbca4a705bb5021ffU,
  0x3b1e8f9a3d6f0b0eU, 0x3d04374a3c94281bU, 0x3dc7c8b93d0f1949U, 0xbe2fc28f3de5065bU,
  0xba91dffd3d6095efU, 0x3d09f5ef3df68459U, 0x3d98869d3dacec39U, 0xbc04b7153e88b399U,
  0xbe30a97bbd2e267bU, 0xbe4a21c53dab412fU, 0x3ddefa6e3d853718U, 0xbe86ab533e05ae7bU,
  0xbc3aa970bcec8036U, 0xbd7c36953caf7b42U, 0x3bd38d77bbad725cU, 0xbe3e87853d5de436U,
  0xbe6a4b0fbdcfe86eU, 0x3d5d382ebc51c416U, 0x3c04f6a63ca4d016U, 0xbe2535ac3e13b6d8U,
  0xbe6285aebda225d4U, 0x3d86dfbd3ce56413U, 0xbcf2c28ebcf059d8U, 0xbe9b2d113e4cce6fU,
  0xbe4dab7bbd28a29dU, 0xbd008d28bd111d32U, 0x3e5a7b09bcda5322U, 0xbe9719363e5ac937U,
  0xbd889f87bb8e1558U, 0xbd0c7ef7bdd7b9f5U, 0x3ea671a33b6530f7U, 0xbe71861e3e49c6c9U,
  0xbcf1a4f3bd3016dbU, 0xbd0534dfbd79d113U, 0x3e8353e6bc030629U, 0xbe0db4463b46790eU,
  0xbb6cd65cbd5700d8U, 0xbd4f3762bdbac8c5U, 0x3e1ee844bcd6eeb0U, 0xbdfacc1bbc6fbc6fU,
  0xbdf315ec3d804ef4U, 0xbd9b3316bdb96f91U, 0x3e2c8544bdedcdecU, 0xbce922ed3c0ec03bU,
  0xbe49ae0cbda5c307U, 0xbd8454cabda06bddU, 0x3bba7d5cbe0faf60U, 0xbcf43c0dbd322eb7U,
  0xbdab702ebcb4118aU, 0xbcda4783bcd19f39U,
};
